{
  "version": "1.0",
  "truncation": null,
  "padding": null,
  "added_tokens": [],
  "normalizer": null,
  "pre_tokenizer": {
    "type": "ByteLevel",
    "add_prefix_space": false,
    "trim_offsets": true,
    "use_regex": true
  },
  "post_processor": {
    "type": "ByteLevel",
    "add_prefix_space": true,
    "trim_offsets": false,
    "use_regex": true
  },
  "decoder": {
    "type": "ByteLevel",
    "add_prefix_space": true,
    "trim_offsets": true,
    "use_regex": true
  },
  "model": {
    "type": "BPE",
    "dropout": null,
    "unk_token": null,
    "continuing_subword_prefix": null,
    "end_of_word_suffix": null,
    "fuse_unk": false,
    "byte_fallback": false,
    "ignore_merges": false,
    "vocab": {
      "\u0000": 0,
      "\u0001": 1,
      "\u0002": 2,
      "\u0003": 3,
      "\u0004": 4,
      "\u0005": 5,
      "\u0006": 6,
      "\u0007": 7,
      "\b": 8,
      "\t": 9,
      "\n": 10,
      "\u000b": 11,
      "\f": 12,
      "\r": 13,
      "\u000e": 14,
      "\u000f": 15,
      "\u0010": 16,
      "\u0011": 17,
      "\u0012": 18,
      "\u0013": 19,
      "\u0014": 20,
      "\u0015": 21,
      "\u0016": 22,
      "\u0017": 23,
      "\u0018": 24,
      "\u0019": 25,
      "\u001a": 26,
      "\u001b": 27,
      "\u001c": 28,
      "\u001d": 29,
      "\u001e": 30,
      "\u001f": 31,
      " ": 32,
      "!": 33,
      "\"": 34,
      "#": 35,
      "$": 36,
      "%": 37,
      "&": 38,
      "'": 39,
      "(": 40,
      ")": 41,
      "*": 42,
      "+": 43,
      ",": 44,
      "Ā": 45,
      "ā": 46,
      "Ă": 47,
      "ă": 48,
      "Ą": 49,
      "ą": 50,
      "Ć": 51,
      "ć": 52,
      "Ĉ": 53,
      "ĉ": 54,
      "Ċ": 55,
      "ċ": 56,
      "Č": 57,
      "č": 58,
      "Ď": 59,
      "ď": 60,
      "Đ": 61,
      "đ": 62,
      "Ē": 63,
      "ē": 64,
      "Ĕ": 65,
      "ĕ": 66,
      "Ė": 67,
      "ė": 68,
      "Ę": 69,
      "ę": 70,
      "Ě": 71,
      "ě": 72,
      "Ĝ": 73,
      "ĝ": 74,
      "Ğ": 75,
      "ğ": 76,
      "Ġ": 77,
      "ĖĖ": 78,
      "Ėĕ": 79,
      "Ėė": 80,
      "ĕĕ": 81,
      "ėė": 82,
      "ĖĖĖĖ": 83,
      "ĕĖ": 84,
      "ėĖ": 85,
      "ėĕ": 86,
      "ėĖĖ": 87,
      "ĕĖĖ": 88,
      "ĖĔ": 89,
      "ĘĖĖ": 90,
      "ĕė": 91,
      "ĔĖĖ": 92,
      "ĖĘ": 93,
      "ĖĕĖĖ": 94,
      "ĖėĖĖ": 95,
      "ĕĔ": 96,
      "ėĖĕ": 97,
      "ēĖĖ": 98,
      "ęĖĖ": 99,
      "ėĘ": 100,
      "ėĔ": 101,
      "ĕĖĕ": 102,
      "ĕĖė": 103,
      "ĕĘ": 104,
      "Ėē": 105,
      "Ėę": 106,
      "ėĖė": 107,
      "ĘĖĕ": 108,
      "ĔĔ": 109,
      "ĘĖ": 110,
      "ĕē": 111,
      "ĔĖ": 112,
      "ĒĖĖ": 113,
      "Ęĕ": 114,
      "ĔĖė": 115,
      "ėĕĕ": 116,
      "ĚĖĖ": 117,
      "Ĕĕ": 118,
      "ėę": 119,
      "ėĖĖĖĖ": 120,
      "ĔĖĕ": 121,
      "ĕĖĖĖĖ": 122,
      "ėē": 123,
      "ęĖĕ": 124,
      "ĖĒ": 125,
      "ĘĘ": 126,
      "ĕĕĖĖ": 127,
      "ĖĚ": 128,
      "ĖĔĖĖ": 129,
      "ĘĖė": 130,
      "ĕėė": 131,
      "ėĕĖ": 132,
      "Ĕė": 133,
      "ĕę": 134,
      "Ęė": 135,
      "Ėđ": 136,
      "ēĖė": 137,
      "ĔėĖ": 138,
      "ėėĖĖ": 139,
      "ĖĘĖĖ": 140,
      "ĕėĖ": 141,
      "ĕĒ": 142,
      "ĘĕĖ": 143,
      "Ėě": 144,
      "ėĕĖĖ": 145,
      "ĔĕĖ": 146,
      "ĘėĖ": 147,
      "ĖĖĖĖĖĖ": 148,
      "ĖĂ": 149,
      "ĚĖĕ": 150,
      "ĖėĖĕ": 151,
      "Ĕē": 152,
      "Ęĕĕ": 153,
      "đĖĖ": 154,
      "ĔĘ": 155,
      "ēĖĕ": 156,
      "ĖĖĖĖĖ": 157,
      "ěĖĖ": 158,
      "ĕĂ": 159,
      "ėĚ": 160,
      "Ĕĕĕ": 161,
      "ĕėĖĖ": 162,
      "ėĒ": 163,
      "ĖĐ": 164,
      "ĖĕĖĕ": 165,
      "ęĖė": 166,
      "ĕđ": 167,
      "ĕėĕ": 168,
      "ĘĔ": 169,
      "ėĂ": 170,
      "Ĕėė": 171,
      "ĖĜ": 172,
      "Ęėĕ": 173,
      "ĕĚ": 174,
      "ęĕĖ": 175,
      "ĒĖė": 176,
      "ēėĖ": 177,
      "ęėĖ": 178,
      "ēĕĖ": 179,
      "ĖĕĖė": 180,
      "ęĕĕ": 181,
      "ĕĔĖĖ": 182,
      "ėĖĕĖĖ": 183,
      "ėě": 184,
      "Ęę": 185,
      "ĕĐ": 186,
      "ėđ": 187,
      "Ėď": 188,
      "Ęėė": 189,
      "Ęē": 190,
      "ĒĖĕ": 191,
      "Ĕĕė": 192,
      "Ĕėĕ": 193,
      "ĕě": 194,
      "ĔĂ": 195,
      "ĕĖĕĖĖ": 196,
      "Ĕę": 197,
      "ĖėĖė": 198,
      "ĕĖĖĕĖĖ": 199,
      "ĕĖėĖĖ": 200,
      "ĔĒ": 201,
      "ĖėĖ": 202,
      "ēē": 203,
      "ėĖĖėĖĖ": 204,
      "ėĐ": 205,
      "ęėĕ": 206,
      "ĜĖĖ": 207,
      "ĖĕĖ": 208,
      "ĕď": 209,
      "ĘĚ": 210,
      "ėėĖ": 211,
      "ěĖĕ": 212,
      "ĒĕĖ": 213,
      "ėĖėĖĖ": 214,
      "ĕĕĖ": 215,
      "ĚėĖ": 216,
      "ĒėĖ": 217,
      "Ęĕė": 218,
      "ĘĖĔ": 219,
      "ēėė": 220,
      "Ĕđ": 221,
      "ėĜ": 222,
      "ėĘĖĖ": 223,
      "ĖĎ": 224,
      "ĚĕĖ": 225,
      "ĚĖė": 226,
      "Ėĝ": 227,
      "ėėĖĕ": 228,
      "ēĕĕ": 229,
      "ĔĖĘ": 230,
      "ĘĂ": 231,
      "ĐĖĖ": 232,
      "ĔĖĔ": 233,
      "ėď": 234,
      "Ěĕĕ": 235,
      "ĖĘĖĕ": 236,
      "ęę": 237,
      "ĘĖĖĖĖ": 238,
      "ĕĜ": 239,
      "ĖĕĖĖĖĖ": 240,
      "ėĖĖĕĖĖ": 241,
      "ĖēĖĖ": 242,
      "ĕĕĖė": 243,
      "Ēē": 244,
      "ĕĕĖĕ": 245,
      "ĕĎ": 246,
      "Ěėĕ": 247,
      "ĘĖĘ": 248,
      "đĖė": 249,
      "ēĕė": 250,
      "ĘĒ": 251,
      "ēĔ": 252,
      "Ęě": 253,
      "ėĝ": 254,
      "ĔĕĖĖ": 255,
      "ęėė": 256,
      "ĔĐ": 257,
      "ĕėĖĕ": 258,
      "ēĒ": 259,
      "ĖĞ": 260,
      "ĖęĖĖ": 261,
      "Ęđ": 262,
      "ėĎ": 263,
      "ēėĕ": 264,
      "ĔĖĖĖĖ": 265,
      "ĖėĖĖĖĖ": 266,
      "Ēėė": 267,
      "ęĘ": 268,
      "đĖĕ": 269,
      "ėĕĖĕ": 270,
      "ĖĔĖĕ": 271,
      "ĖĔĖė": 272,
      "ĕĝ": 273,
      "ĔĚ": 274,
      "ėĕĖė": 275,
      "ĖĕĖĖĖ": 276,
      "ĕĘĖĖ": 277,
      "Ĕď": 278,
      "ěėĖ": 279,
      "ěĕĖ": 280,
      "Ēĕĕ": 281,
      "ĕēĖĖ": 282,
      "ēę": 283,
      "ėėĖė": 284,
      "ĔĖĖĕĖĖ": 285,
      "ĘĐ": 286,
      "Ěę": 287,
      "ĜĖĕ": 288,
      "đėĖ": 289,
      "ĘėĖĖ": 290,
      "ęē": 291,
      "ěĖė": 292,
      "đĕĖ": 293,
      "ėĞ": 294,
      "ēĂ": 295,
      "ĕėĖė": 296,
      "ĝĖĖ": 297,
      "Ėğ": 298,
      "Ēĕė": 299,
      "ĖĕĕĖĖ": 300,
      "ĕĖĘ": 301,
      "ėĖĔ": 302,
      "Ęď": 303,
      "ĘĖĖėĖĖ": 304,
      "ĕĞ": 305,
      "ęĕė": 306,
      "ēđ": 307,
      "ėĔĖĖ": 308,
      "ęĖĔ": 309,
      "Ěėė": 310,
      "ěĕĕ": 311,
      "ėęĖĖ": 312,
      "ĔĎ": 313,
      "ėĕĕĖĖ": 314,
      "ĒĒ": 315,
      "ĖĕĖĖĕĖĖ": 316,
      "Ĕě": 317,
      "ĘĜ": 318,
      "ĘĕĖĖ": 319,
      "ęĚ": 320,
      "ĕĔĖė": 321,
      "ėĖĖĖĕ": 322,
      "ęĒ": 323,
      "ĕĖĖĖĖĖ": 324,
      "ęĔ": 325,
      "ĖĖĖĖĖĖĖĖ": 326,
      "ęđ": 327,
      "ėĘĖĕ": 328,
      "Ēėĕ": 329,
      "ēĐ": 330,
      "ėğ": 331,
      "ĘĕĔ": 332,
      "ėĖĖĖĖĖ": 333,
      "ĘĎ": 334,
      "ēĖĘ": 335,
      "ĔĕĖĕ": 336,
      "ěėĕ": 337,
      "ĖĔėĖ": 338,
      "ĐĖė": 339,
      "ęĖ": 340,
      "ĖėėĖ": 341,
      "ĖęĖĕ": 342,
      "ďĖĖ": 343,
      "ĔĕĘ": 344,
      "ĕĖĖėĖĖ": 345,
      "ēĖ": 346,
      "đėė": 347,
      "ĖĔĕĖ": 348,
      "Ėā": 349,
      "ĔĜ": 350,
      "ĖėĕĖ": 351,
      "ĘėĖĕ": 352,
      "ĘėĔ": 353,
      "ĘėĖė": 354,
      "ĕĖĖĖĕ": 355,
      "ęě": 356,
      "ĕğ": 357,
      "ĖėĖĖėĖĖ": 358,
      "ęĂ": 359,
      "đē": 360,
      "ĕĔĖĕ": 361,
      "Ęĝ": 362,
      "ĚĚ": 363,
      "ēď": 364,
      "ĖĖĖĕ": 365,
      "ĖĘĖė": 366,
      "ĘĖē": 367,
      "ĖĘėĖ": 368,
      "ĕĕĖĖĖĖ": 369,
      "Ěē": 370,
      "ęĐ": 371,
      "ĔĕĖė": 372,
      "Ěĕė": 373,
      "ėėĖĖĖĖ": 374,
      "ĕā": 375,
      "ĖĘĕĖ": 376,
      "Ēę": 377,
      "ĔėĖĖ": 378,
      "ĔėĘ": 379,
      "ĚĖĔ": 380,
      "Ėėĕĕ": 381,
      "ĔĖē": 382,
      "ĔĖĖėĖĖ": 383,
      "Ėă": 384,
      "ĖĕĕĖ": 385,
      "ĘĖĖĕĖĖ": 386,
      "ĔĕĔ": 387,
      "ęď": 388,
      "ĘĕĖė": 389,
      "ĔėĖĕ": 390,
      "Ēđ": 391,
      "ĖĕėĖ": 392,
      "ĒĐ": 393,
      "ĘĕĘ": 394,
      "ĝĖĕ": 395,
      "đĕĕ": 396,
      "ĔĖę": 397,
      "ĐėĖ": 398,
      "ĜĕĖ": 399,
      "ĔĖĖĔĖĖ": 400,
      "ĖĖĖĖėĖĖ": 401,
      "ĘĖę": 402,
      "ĐĖĕ": 403,
      "ĜėĖ": 404,
      "ĖĖĖĖĕĖĖ": 405,
      "ĘĞ": 406,
      "ėĖĖĖĖĖĖ": 407,
      "ĖĕĖĖėĖĖ": 408,
      "ěę": 409,
      "ėėĕ": 410,
      "ĘĕĖĕ": 411,
      "ĖėĖĖĕĖĖ": 412,
      "ĒĖĘ": 413,
      "ēĖĔ": 414,
      "Ĕĝ": 415,
      "Ėĕĕĕ": 416,
      "ĜĖė": 417,
      "ĘĖĖĘĖĖ": 418,
      "ēĚ": 419,
      "ėă": 420,
      "đĕė": 421,
      "ĐĕĖ": 422,
      "ĖĒĖĖ": 423,
      "ĔėĔ": 424,
      "ĚĒ": 425,
      "ĕă": 426,
      "Ĝĕĕ": 427,
      "ěėė": 428,
      "ĔĔĖĖ": 429,
      "ėĕė": 430,
      "ĕĖĖĖė": 431,
      "ĕĘĖĕ": 432,
      "đĒ": 433,
      "ēĎ": 434,
      "ĘėĘ": 435,
      "đėĕ": 436,
      "ėėė": 437,
      "Ė!": 438,
      "ĖēĖė": 439,
      "ĕĖĖĖĖĖĖ": 440,
      "Ēď": 441,
      "ĕĒĖĖ": 442,
      "ęĖĘ": 443,
      "ĘĖĕĖĖ": 444,
      "ėėĕĕ": 445,
      "ĔėĖė": 446,
      "ęĎ": 447,
      "ĖĕėĖĖ": 448,
      "ĔĞ": 449,
      "Đē": 450,
      "ěĖĔ": 451,
      "ĖĘĕĕ": 452,
      "ėā": 453,
      "ė!": 454,
      "ĖĚĖĖ": 455,
      "ĘĘĖĖ": 456,
      "ęĕĔ": 457,
      "đđ": 458,
      "ĖėėĖĖ": 459,
      "Ė\"": 460,
      "ėĖĔĖĖ": 461,
      "Ěě": 462,
      "ęĜ": 463,
      "Ęğ": 464,
      "ĕėėĖĖ": 465,
      "ĕĕĕĕ": 466,
      "ęėĔ": 467,
      "ĘĘĕ": 468,
      "ĘĔĖ": 469,
      "ĕ!": 470,
      "ėĕĖĖĖĖ": 471,
      "ĔĖėĖĖ": 472,
      "ĞĖĖ": 473,
      "ēě": 474,
      "Ĝėĕ": 475,
      "ėĖĖĖė": 476,
      "ĒĚ": 477,
      "ĕĕė": 478,
      "ėĖē": 479,
      "ĒĖĔ": 480,
      "ěĕė": 481,
      "ĘĘĖ": 482,
      "ĕĖĘĖĖ": 483,
      "ĔĖĖĖĖĖ": 484,
      "ĕęĖĖ": 485,
      "ėĖĘĖĖ": 486,
      "Đėė": 487,
      "ėĖĕĕĖĖ": 488,
      "ĔĘĖ": 489,
      "ĚĐ": 490,
      "ėĖĕėĖĖ": 491,
      "ĎĖĖ": 492,
      "ĖēĖĕ": 493,
      "ĕĖĔĖĖ": 494,
      "Ěđ": 495,
      "Ĕă": 496,
      "ęĝ": 497,
      "ĒĂ": 498,
      "ęĕ": 499,
      "ĚĕĔ": 500,
      "ęė": 501,
      "ĖēėĖ": 502,
      "ĖėĕĖĖ": 503,
      "ĕėĖĖĖĖ": 504,
      "ĕėĕĕ": 505,
      "ĕĖē": 506,
      "ĘĘĖĕ": 507,
      "ėęĖĕ": 508,
      "ďĖĕ": 509,
      "Đĕĕ": 510,
      "Ėėėė": 511,
      "Ęă": 512,
      "Ęĕē": 513,
      "ė\"": 514,
      "ĘĔĕ": 515,
      "ĖĔĕĕ": 516,
      "ĖĖĖĖĖĕ": 517,
      "ĒĎ": 518,
      "Ėėėĕ": 519,
      "Ěď": 520,
      "ĕĖĖĔĖĖ": 521,
      "ēĕĘ": 522,
      "ęĖĖėĖĖ": 523,
      "Ėėė": 524,
      "ēė": 525,
      "ěĚ": 526,
      "ėĖėĖĕ": 527,
      "ęĘĕ": 528,
      "ĖēĕĖ": 529,
      "ęĔĖ": 530,
      "Ė#": 531,
      "ĕĖėĖĕ": 532,
      "ĕĖĔ": 533,
      "ĖĘėĕ": 534,
      "ĘĖĖĖĖĖ": 535,
      "ďĖė": 536,
      "ĕĕĕ": 537,
      "đĐ": 538,
      "Ėėĕ": 539,
      "ĖęėĖ": 540,
      "ĖĔėė": 541,
      "ēėĘ": 542,
      "ēĜ": 543,
      "ēĖĖĕĖĖ": 544,
      "Ēě": 545,
      "ĚėĔ": 546,
      "ĖęĕĖ": 547,
      "ĖĈ": 548,
      "ĖđĖĖ": 549,
      "Ĕā": 550,
      "ēĕ": 551,
      "ęĘĖ": 552,
      "ĕēĖė": 553,
      "ĕĖĖĖ": 554,
      "ėĚĖĖ": 555,
      "ĕ\"": 556,
      "ėĖĘ": 557,
      "ėĖĕĖĕ": 558,
      "ęĞ": 559,
      "ęĖĖĖĖ": 560,
      "Ĕğ": 561,
      "đĖĘ": 562,
      "ĖěĖĖ": 563,
      "ĝėĖ": 564,
      "ĚĖĘ": 565,
      "ĖĔĖĖĖĖ": 566,
      "ėĔĖĕ": 567,
      "ėĖĖĘĖĖ": 568,
      "ĕĕėė": 569,
      "ĝĕĖ": 570,
      "ėĕėė": 571,
      "ĕĖĕĖĕ": 572,
      "đĚ": 573,
      "ĖęĖė": 574,
      "ėēĖĖ": 575,
      "ĚĜ": 576,
      "ĒĕĘ": 577,
      "ěē": 578,
      "ĖėĖĕĖĖ": 579,
      "ĝĖė": 580,
      "Ėĕėė": 581,
      "ĕĖėĕĖ": 582,
      "Đėĕ": 583,
      "Ęėĕĕ": 584,
      "ēĘĖ": 585,
      "ėĖĖĕĕ": 586,
      "ĐĒ": 587,
      "ĕĖĕĕĖĖ": 588,
      "Ĝėė": 589,
      "ĚĎ": 590,
      "ďĕĖ": 591,
      "ĕėĕĖĖ": 592,
      "ĘęĖĖ": 593,
      "ďėĖ": 594,
      "ĚĘĖ": 595,
      "ęĔĕ": 596,
      "Đĕė": 597,
      "ĚĔĖ": 598,
      "ĕĖĕĕĖ": 599,
      "ĖĔėĕ": 600,
      "Ĕĕē": 601,
      "ěĒ": 602,
      "ĖĖĖė": 603,
      "ėĘĖė": 604,
      "ēĝ": 605,
      "ēĖĖĖĖ": 606,
      "ėĖėėĖ": 607,
      "ĒĔĖ": 608,
      "ė#": 609,
      "ĔēĖĖ": 610,
      "ĕĈ": 611,
      "ĒĘĖ": 612,
      "ĘĖĕėĖĖ": 613,
      "ĘėĖĖĖĖ": 614,
      "ėĖĕĖė": 615,
      "ĕėĕĖ": 616,
      "ĖėĖĖĘĖĖ": 617,
      "ĕ#": 618,
      "ĔĖĕĖĖ": 619,
      "Ĝĕė": 620,
      "đę": 621,
      "ĕĖĕĖė": 622,
      "ĕĔėĖ": 623,
      "ĔĔĖĕ": 624,
      "đď": 625,
      "ĞĖĕ": 626,
      "ĖĘĖĖĖĖ": 627,
      "ĕĖĖĕĕ": 628,
      "ėĘĕĕ": 629,
      "ėĔĖė": 630,
      "Ęā": 631,
      "ĖĕĖĖĔĖĖ": 632,
      "Ę!": 633,
      "ĚĂ": 634,
      "ĕĖĕėĖ": 635,
      "ĕēĖĕ": 636,
      "Ěĝ": 637,
      "ĜĖĔ": 638,
      "ęėĖĖ": 639,
      "ĚĘĕ": 640,
      "ĖĚĖĕ": 641,
      "ėĈ": 642,
      "ēĘ": 643,
      "ėĖĕĕĖ": 644,
      "ėĖĕėĖ": 645,
      "ēĔĖ": 646,
      "ęĖĖĘĖĖ": 647,
      "ĐĐ": 648,
      "ĒėĘ": 649,
      "Ė$": 650,
      "ėėėė": 651,
      "ĕĔĕĖ": 652,
      "ĒĜ": 653,
      "ēă": 654,
      "ěě": 655,
      "ėĖĕĖĖĖ": 656,
      "ĔĕĖĖĖĖ": 657,
      "ĝĕĕ": 658,
      "đĎ": 659,
      "ęėĖė": 660,
      "ĕĘĖė": 661,
      "ěėĔ": 662,
      "ėĕĖėĖĖ": 663,
      "ėĖĖĖĖĖĖĖĖ": 664,
      "ĖĖĖĖĖĖĖ": 665,
      "ĘĔĔ": 666,
      "ĠĖĖ": 667,
      "ęğ": 668,
      "ĕĕėĖ": 669,
      "ęĕĘ": 670,
      "đĖĔ": 671,
      "ĕĖėėĖ": 672,
      "ĕĖėĖė": 673,
      "Ĕ!": 674,
      "Ėć": 675,
      "ěĕĔ": 676,
      "ēĕĔ": 677,
      "ĝėĕ": 678,
      "ĔĔĖė": 679,
      "ĔĘĕ": 680,
      "ēėĔ": 681,
      "Ėĕĕ": 682,
      "ėėĖĕĖĖ": 683,
      "Ĕėē": 684,
      "Ęėē": 685,
      "ĕĖĖėĖ": 686,
      "ēĖĖĔĖĖ": 687,
      "ęėĘ": 688,
      "ĕĖĖĕĖ": 689,
      "ēĞ": 690,
      "ėĖĖĕĖ": 691,
      "Ĕėę": 692,
      "Ĝę": 693,
      "ĖĖĖĖĖė": 694,
      "ĖĕĖĕĖĖ": 695,
      "ĕĕėĖĖ": 696,
      "ĔĈ": 697,
      "Ėęėĕ": 698,
      "Ėĕė": 699,
      "ĘĖėĖĖ": 700,
      "ěđ": 701,
      "ĖĒĖė": 702,
      "Ęėę": 703,
      "ĜĚ": 704,
      "Ėęĕĕ": 705,
      "ėĖėĕĖ": 706,
      "ĎĖė": 707,
      "ĔĘė": 708,
      "ėć": 709,
      "ěď": 710,
      "Đď": 711,
      "ĕęĖĕ": 712,
      "ĕĔėė": 713,
      "ĘĖĖĔĖĖ": 714,
      "ĕđĖĖ": 715,
      "ĕĕĖĕĖĖ": 716,
      "ėėĖĔ": 717,
      "ēğ": 718,
      "đĕĘ": 719,
      "ĖĕĖėĖĖ": 720,
      "ĕĕĕĖ": 721,
      "ĕ$": 722,
      "ĘĖĕĕĖĖ": 723,
      "đėĘ": 724,
      "ĕĕĖėĖĖ": 725,
      "ėėėĕ": 726,
      "ěĎ": 727,
      "ěĔĖ": 728,
      "ĕėĖĕĖĖ": 729,
      "ĐĖĘ": 730,
      "ĚĞ": 731,
      "ėėĕĖĖ": 732,
      "ĘĈ": 733,
      "ė$": 734,
      "ĎėĖ": 735,
      "Ę\"": 736,
      "ĖĔĖĖĕĖĖ": 737,
      "ĒĖ": 738,
      "ėĕĖĕĖĖ": 739,
      "ĕĔĖĖĖĖ": 740,
      "Đđ": 741,
      "ėĖĖĔĖĖ": 742,
      "Ēĝ": 743,
      "ĕć": 744,
      "ĕĕĖĖĖ": 745,
      "ĕĔĕĕ": 746,
      "ďėė": 747,
      "ĚĔĕ": 748,
      "ěĜ": 749,
      "ğĖĖ": 750,
      "ėėĕĖ": 751,
      "ĖĒĖĕ": 752,
      "đĔĖ": 753,
      "ėĖėĖė": 754,
      "ėėĖėĖĖ": 755,
      "ĕĖĖĖĖĖĖĖĖ": 756,
      "ĖĔĕė": 757,
      "ĒėĔ": 758,
      "ĔĘĖĖ": 759,
      "ĕĘĕĖ": 760,
      "ĕēėĖ": 761,
      "ĕĕĕĖĖ": 762,
      "ĖĕĖĘ": 763,
      "ęĔĔ": 764,
      "ĕĕĖĖĕĖĖ": 765,
      "ĕĖĕėĖĖ": 766,
      "ďĕė": 767,
      "Ĕėĕĕ": 768,
      "ěĖĘ": 769,
      "đĘĖ": 770,
      "ęĖē": 771,
      "ĝĕė": 772,
      "ĖėĖėĖĖ": 773,
      "ēĕĖĖ": 774,
      "ėĚĖĕ": 775,
      "ĕēĕĖ": 776,
      "ĔĘĖĕ": 777,
      "Ę#": 778,
      "ęĘĖĖ": 779,
      "ėĘėĖ": 780,
      "ėĕėĖĖ": 781,
      "ĘĕĖĖĖĖ": 782,
      "ĚĔĔ": 783,
      "ĘĔĖĖ": 784,
      "ēĕĖĕ": 785,
      "ĖėĖĔ": 786,
      "ĘĔė": 787,
      "ĞĕĖ": 788,
      "ēā": 789,
      "Ė%": 790,
      "Ėēėė": 791,
      "ēĔĕ": 792,
      "ėėĖĘ": 793,
      "ęă": 794,
      "ĕĘėĖ": 795,
      "ėĕėĖ": 796,
      "ēĖę": 797,
      "ĖĒėĖ": 798,
      "ĐĎ": 799,
      "ĔĒĖĖ": 800,
      "ėĘĕĖ": 801,
      "Ėēĕĕ": 802,
      "ĘęĖĕ": 803,
      "ěĐ": 804,
      "ėėėĖ": 805,
      "ĔĘĘ": 806,
      "ėĖĖėĖ": 807,
      "ėĒĖĖ": 808,
      "ĖĘĖĖėĖĖ": 809,
      "ěĘĕ": 810,
      "ďėĕ": 811,
      "ĖĆ": 812,
      "ĝėė": 813,
      "ėęĖė": 814,
      "đě": 815,
      "ĖĖĖĖĖĖĖĕ": 816,
      "ęĕĖė": 817,
      "ĘĔĖė": 818,
      "Ĕ\"": 819,
      "ėĖĖėĖĕ": 820,
      "ėĕĖĖĖ": 821,
      "ęĖĖĕĖĖ": 822,
      "ęĔė": 823,
      "ęėĖĕ": 824,
      "ďĕĕ": 825,
      "ĒĕĔ": 826,
      "ĎĖĕ": 827,
      "ēĘė": 828,
      "ēĖĖėĖĖ": 829,
      "ĒĘė": 830,
      "Ęć": 831,
      "ĒĞ": 832,
      "Ėĕėĕ": 833,
      "ēĖē": 834,
      "ĕĖėĕĖĖ": 835,
      "ěĘĖ": 836,
      "ĖĚĕĖ": 837,
      "ĖĄ": 838,
      "ĖĐĖĖ": 839,
      "ĕĚĖĖ": 840,
      "ėĘĖĖĖĖ": 841,
      "ėĘėĕ": 842,
      "Ğĕĕ": 843,
      "ĕĒĖė": 844,
      "ďĐ": 845,
      "ĔēĖė": 846,
      "ĕĆ": 847,
      "ęėĕĕ": 848,
      "ēĔė": 849,
      "ĖĕĖĔ": 850,
      "ĖėĖĖĖĖĖ": 851,
      "ĞĖė": 852,
      "ėĔĕĕ": 853,
      "ęĈ": 854,
      "ĕėĖėĖĖ": 855,
      "ďď": 856,
      "ĒĔĕ": 857,
      "ėĖĖėė": 858,
      "ĔĔĖ": 859,
      "ĘĚĖĖ": 860,
      "ĜĕĔ": 861,
      "ęĖę": 862,
      "ĕĄ": 863,
      "ĘĖĖėĖĕ": 864,
      "đĂ": 865,
      "ĔėĖĖĖĖ": 866,
      "ĔĕĖĕĖĖ": 867,
      "ėēĖė": 868,
      "ĔėĖĕĖĖ": 869,
      "đĜ": 870,
      "ė%": 871,
      "ĞėĖ": 872,
      "ĕĕĖĘ": 873,
      "ĎĕĖ": 874,
      "ĕ%": 875,
      "ėĆ": 876,
      "ĕĖĕĖĖĖ": 877,
      "ēĘĕ": 878,
      "ęĖĕĖĖ": 879,
      "ę!": 880,
      "ĖėĖĖĔĖĖ": 881,
      "ĔĖėĕĖĖ": 882,
      "ĐĖĔ": 883,
      "Ė,": 884,
      "ĖĒĕĖ": 885,
      "ēĔĘ": 886,
      "ĕĕĖĔ": 887,
      "ĐĕĘ": 888,
      "ĒĘĕ": 889,
      "Ěğ": 890,
      "ěĔĔ": 891,
      "ĚĕĘ": 892,
      "ĚėĘ": 893,
      "ĖĕĔĖĖ": 894,
      "ĕĕėĕ": 895,
      "ĕĖĕĔĖĖ": 896,
      "ĖĚėĖ": 897,
      "ĒĔė": 898,
      "ĖĜĖĖ": 899,
      "ēĕĖė": 900,
      "ėą": 901,
      "ĖĘėė": 902,
      "ĚĖ": 903,
      "ĘĕĖėĖĖ": 904,
      "ĐĘĖ": 905,
      "ėęĕĖ": 906,
      "ďđ": 907,
      "ĝĖĔ": 908,
      "ĖĕĖĖĖĕ": 909,
      "ĕĔėĕ": 910,
      "ĕēėė": 911,
      "ĜėĔ": 912,
      "ĒĔĘ": 913,
      "ėěĖĖ": 914,
      "Ę$": 915,
      "Ėēėĕ": 916,
      "ĎĐ": 917,
      "ĘėĖėĖĖ": 918,
      "ĒĖę": 919,
      "ėĖĕĕĕ": 920,
      "Ė&": 921,
      "ĔĖĖēĖĖ": 922,
      "ėęĕĕ": 923,
      "ĖĖĖĖĘĖĖ": 924,
      "Ėą": 925,
      "ĕĖĕĕĕ": 926,
      "Ĕć": 927,
      "ĘėĖĕĖĖ": 928,
      "ĘĖĖęĖĖ": 929,
      "ĔĕĖėĖĖ": 930,
      "ĜĔĖ": 931,
      "ĘĕĕĖĖ": 932,
      "Ĕ#": 933,
      "ĕą": 934,
      "ĘėĕĖĖ": 935,
      "ęĕĖĖ": 936,
      "ĜĒ": 937,
      "ėĕĕĖĕ": 938,
      "Ďėė": 939,
      "ēĈ": 940,
      "ę\"": 941,
      "ĖĚĖė": 942,
      "ė,": 943,
      "ėĄ": 944,
      "ĕĘĖ": 945,
      "ďĖĘ": 946,
      "đėĔ": 947,
      "ėĕĕĖė": 948,
      "ĖĔĖĖĔĖĖ": 949,
      "Ĝě": 950,
      "ĠĖĕ": 951,
      "ĔĖĕĕĖĖ": 952,
      "ĚĖē": 953,
      "ėĕėĕ": 954,
      "ĘĖĖĘĖĕ": 955,
      "ĘĘĖė": 956,
      "ėėĖĖėĖĖ": 957,
      "ĐėĘ": 958,
      "ĕ,": 959,
      "ėęėĖ": 960,
      "ĖĖėĖ": 961,
      "Ďď": 962,
      "ĔĄ": 963,
      "ĘĖĕĖĖĖ": 964,
      "ėēĖĕ": 965,
      "ĖėĖĕĕĖĖ": 966,
      "ė&": 967,
      "ĖěĖĕ": 968,
      "Ę%": 969,
      "ĚĔė": 970,
      "ēĔĖĖ": 971,
      "ĘĔĖĕ": 972,
      "ĖĕĖĖĘĖĖ": 973,
      "ēėĖĕ": 974,
      "ĕĕĖĖėĖĖ": 975,
      "Ēă": 976,
      "ĝĚ": 977,
      "ĖėĖĘ": 978,
      "ĖĕĖĖė": 979,
      "ėĘĖ": 980,
      "Ĕĕėė": 981,
      "ēĖėĖĖ": 982,
      "ĖėĖĖĖĕ": 983,
      "ĕĖėĕĕ": 984,
      "ėĖĖĖĖĖĕĖĖ": 985,
      "ĖĔĖĖėĖĖ": 986,
      "ęĕē": 987,
      "ėĔĖ": 988,
      "ĕĖėėĖĖ": 989,
      "ęĘė": 990,
      "ĕĖĖĘĖĖ": 991,
      "Ėēĕė": 992,
      "ęĘĖĕ": 993,
      "ďĒ": 994,
      "ėĖĕĘĖĖ": 995,
      "ęā": 996,
      "ęĖĖĖĖĖ": 997,
      "ėĖĕĔĖĖ": 998,
      "ĕĘėė": 999,
      "Ę,": 1000,
      "ěĔĕ": 1001,
      "ďĎ": 1002,
      "Ė'": 1003,
      "ĘĆ": 1004,
      "ęć": 1005,
      "ĖĖĖĖĔĖĖ": 1006,
      "ėĔĕĖ": 1007,
      "ĕĘĕĕ": 1008,
      "ĐĔĖ": 1009,
      "đĕĔ": 1010,
      "ĜĖĘ": 1011,
      "ĕĖĕėė": 1012,
      "ĕĒĖĕ": 1013,
      "ďē": 1014,
      "ĕĖĖėė": 1015,
      "ėĖĖĖĕĖĖ": 1016,
      "ĕēĕĕ": 1017,
      "Ĕ$": 1018,
      "ęĖĕėĖĖ": 1019,
      "ė'": 1020,
      "ĕĔĕė": 1021,
      "ĔĖĖĖĕ": 1022,
      "ĔĘĖė": 1023
    },
    "merges": [
      [
        "Ė",
        "Ė"
      ],
      [
        "Ė",
        "ĕ"
      ],
      [
        "Ė",
        "ė"
      ],
      [
        "ĕ",
        "ĕ"
      ],
      [
        "ė",
        "ė"
      ],
      [
        "ĖĖ",
        "ĖĖ"
      ],
      [
        "ĕ",
        "Ė"
      ],
      [
        "ė",
        "Ė"
      ],
      [
        "ė",
        "ĕ"
      ],
      [
        "ė",
        "ĖĖ"
      ],
      [
        "ĕ",
        "ĖĖ"
      ],
      [
        "Ė",
        "Ĕ"
      ],
      [
        "Ę",
        "ĖĖ"
      ],
      [
        "ĕ",
        "ė"
      ],
      [
        "Ĕ",
        "ĖĖ"
      ],
      [
        "Ė",
        "Ę"
      ],
      [
        "Ėĕ",
        "ĖĖ"
      ],
      [
        "Ėė",
        "ĖĖ"
      ],
      [
        "ĕ",
        "Ĕ"
      ],
      [
        "ė",
        "Ėĕ"
      ],
      [
        "ē",
        "ĖĖ"
      ],
      [
        "ę",
        "ĖĖ"
      ],
      [
        "ė",
        "Ę"
      ],
      [
        "ė",
        "Ĕ"
      ],
      [
        "ĕ",
        "Ėĕ"
      ],
      [
        "ĕ",
        "Ėė"
      ],
      [
        "ĕ",
        "Ę"
      ],
      [
        "Ė",
        "ē"
      ],
      [
        "Ė",
        "ę"
      ],
      [
        "ė",
        "Ėė"
      ],
      [
        "Ę",
        "Ėĕ"
      ],
      [
        "Ĕ",
        "Ĕ"
      ],
      [
        "Ę",
        "Ė"
      ],
      [
        "ĕ",
        "ē"
      ],
      [
        "Ĕ",
        "Ė"
      ],
      [
        "Ē",
        "ĖĖ"
      ],
      [
        "Ę",
        "ĕ"
      ],
      [
        "Ĕ",
        "Ėė"
      ],
      [
        "ė",
        "ĕĕ"
      ],
      [
        "Ě",
        "ĖĖ"
      ],
      [
        "Ĕ",
        "ĕ"
      ],
      [
        "ė",
        "ę"
      ],
      [
        "ė",
        "ĖĖĖĖ"
      ],
      [
        "Ĕ",
        "Ėĕ"
      ],
      [
        "ĕ",
        "ĖĖĖĖ"
      ],
      [
        "ė",
        "ē"
      ],
      [
        "ę",
        "Ėĕ"
      ],
      [
        "Ė",
        "Ē"
      ],
      [
        "Ę",
        "Ę"
      ],
      [
        "ĕĕ",
        "ĖĖ"
      ],
      [
        "Ė",
        "Ě"
      ],
      [
        "ĖĔ",
        "ĖĖ"
      ],
      [
        "Ę",
        "Ėė"
      ],
      [
        "ĕ",
        "ėė"
      ],
      [
        "ė",
        "ĕĖ"
      ],
      [
        "Ĕ",
        "ė"
      ],
      [
        "ĕ",
        "ę"
      ],
      [
        "Ę",
        "ė"
      ],
      [
        "Ė",
        "đ"
      ],
      [
        "ē",
        "Ėė"
      ],
      [
        "Ĕ",
        "ėĖ"
      ],
      [
        "ėė",
        "ĖĖ"
      ],
      [
        "Ė",
        "ĘĖĖ"
      ],
      [
        "ĕ",
        "ėĖ"
      ],
      [
        "ĕ",
        "Ē"
      ],
      [
        "Ę",
        "ĕĖ"
      ],
      [
        "Ė",
        "ě"
      ],
      [
        "ėĕ",
        "ĖĖ"
      ],
      [
        "Ĕ",
        "ĕĖ"
      ],
      [
        "Ę",
        "ėĖ"
      ],
      [
        "ĖĖĖĖ",
        "ĖĖ"
      ],
      [
        "Ė",
        "Ă"
      ],
      [
        "Ě",
        "Ėĕ"
      ],
      [
        "Ėė",
        "Ėĕ"
      ],
      [
        "Ĕ",
        "ē"
      ],
      [
        "Ę",
        "ĕĕ"
      ],
      [
        "đ",
        "ĖĖ"
      ],
      [
        "Ĕ",
        "Ę"
      ],
      [
        "ē",
        "Ėĕ"
      ],
      [
        "ĖĖĖĖ",
        "Ė"
      ],
      [
        "ě",
        "ĖĖ"
      ],
      [
        "ĕ",
        "Ă"
      ],
      [
        "ė",
        "Ě"
      ],
      [
        "Ĕ",
        "ĕĕ"
      ],
      [
        "ĕ",
        "ėĖĖ"
      ],
      [
        "ė",
        "Ē"
      ],
      [
        "Ė",
        "Đ"
      ],
      [
        "Ėĕ",
        "Ėĕ"
      ],
      [
        "ę",
        "Ėė"
      ],
      [
        "ĕ",
        "đ"
      ],
      [
        "ĕ",
        "ėĕ"
      ],
      [
        "Ę",
        "Ĕ"
      ],
      [
        "ė",
        "Ă"
      ],
      [
        "Ĕ",
        "ėė"
      ],
      [
        "Ė",
        "Ĝ"
      ],
      [
        "Ę",
        "ėĕ"
      ],
      [
        "ĕ",
        "Ě"
      ],
      [
        "ę",
        "ĕĖ"
      ],
      [
        "Ē",
        "Ėė"
      ],
      [
        "ē",
        "ėĖ"
      ],
      [
        "ę",
        "ėĖ"
      ],
      [
        "ē",
        "ĕĖ"
      ],
      [
        "Ėĕ",
        "Ėė"
      ],
      [
        "ę",
        "ĕĕ"
      ],
      [
        "ĕ",
        "ĔĖĖ"
      ],
      [
        "ė",
        "ĖĕĖĖ"
      ],
      [
        "ė",
        "ě"
      ],
      [
        "Ę",
        "ę"
      ],
      [
        "ĕ",
        "Đ"
      ],
      [
        "ė",
        "đ"
      ],
      [
        "Ė",
        "ď"
      ],
      [
        "Ę",
        "ėė"
      ],
      [
        "Ę",
        "ē"
      ],
      [
        "Ē",
        "Ėĕ"
      ],
      [
        "Ĕ",
        "ĕė"
      ],
      [
        "Ĕ",
        "ėĕ"
      ],
      [
        "ĕ",
        "ě"
      ],
      [
        "Ĕ",
        "Ă"
      ],
      [
        "ĕ",
        "ĖĕĖĖ"
      ],
      [
        "Ĕ",
        "ę"
      ],
      [
        "Ėė",
        "Ėė"
      ],
      [
        "ĕĖĖ",
        "ĕĖĖ"
      ],
      [
        "ĕ",
        "ĖėĖĖ"
      ],
      [
        "Ĕ",
        "Ē"
      ],
      [
        "Ėė",
        "Ė"
      ],
      [
        "ē",
        "ē"
      ],
      [
        "ėĖĖ",
        "ėĖĖ"
      ],
      [
        "ė",
        "Đ"
      ],
      [
        "ę",
        "ėĕ"
      ],
      [
        "Ĝ",
        "ĖĖ"
      ],
      [
        "Ėĕ",
        "Ė"
      ],
      [
        "ĕ",
        "ď"
      ],
      [
        "Ę",
        "Ě"
      ],
      [
        "ėė",
        "Ė"
      ],
      [
        "ě",
        "Ėĕ"
      ],
      [
        "Ē",
        "ĕĖ"
      ],
      [
        "ė",
        "ĖėĖĖ"
      ],
      [
        "ĕĕ",
        "Ė"
      ],
      [
        "Ě",
        "ėĖ"
      ],
      [
        "Ē",
        "ėĖ"
      ],
      [
        "Ę",
        "ĕė"
      ],
      [
        "Ę",
        "ĖĔ"
      ],
      [
        "ē",
        "ėė"
      ],
      [
        "Ĕ",
        "đ"
      ],
      [
        "ė",
        "Ĝ"
      ],
      [
        "ė",
        "ĘĖĖ"
      ],
      [
        "Ė",
        "Ď"
      ],
      [
        "Ě",
        "ĕĖ"
      ],
      [
        "Ě",
        "Ėė"
      ],
      [
        "Ė",
        "ĝ"
      ],
      [
        "ėė",
        "Ėĕ"
      ],
      [
        "ē",
        "ĕĕ"
      ],
      [
        "Ĕ",
        "ĖĘ"
      ],
      [
        "Ę",
        "Ă"
      ],
      [
        "Đ",
        "ĖĖ"
      ],
      [
        "Ĕ",
        "ĖĔ"
      ],
      [
        "ė",
        "ď"
      ],
      [
        "Ě",
        "ĕĕ"
      ],
      [
        "ĖĘ",
        "Ėĕ"
      ],
      [
        "ę",
        "ę"
      ],
      [
        "Ę",
        "ĖĖĖĖ"
      ],
      [
        "ĕ",
        "Ĝ"
      ],
      [
        "Ėĕ",
        "ĖĖĖĖ"
      ],
      [
        "ėĖĖ",
        "ĕĖĖ"
      ],
      [
        "Ė",
        "ēĖĖ"
      ],
      [
        "ĕĕ",
        "Ėė"
      ],
      [
        "Ē",
        "ē"
      ],
      [
        "ĕĕ",
        "Ėĕ"
      ],
      [
        "ĕ",
        "Ď"
      ],
      [
        "Ě",
        "ėĕ"
      ],
      [
        "Ę",
        "ĖĘ"
      ],
      [
        "đ",
        "Ėė"
      ],
      [
        "ē",
        "ĕė"
      ],
      [
        "Ę",
        "Ē"
      ],
      [
        "ē",
        "Ĕ"
      ],
      [
        "Ę",
        "ě"
      ],
      [
        "ė",
        "ĝ"
      ],
      [
        "Ĕ",
        "ĕĖĖ"
      ],
      [
        "ę",
        "ėė"
      ],
      [
        "Ĕ",
        "Đ"
      ],
      [
        "ĕė",
        "Ėĕ"
      ],
      [
        "ē",
        "Ē"
      ],
      [
        "Ė",
        "Ğ"
      ],
      [
        "Ė",
        "ęĖĖ"
      ],
      [
        "Ę",
        "đ"
      ],
      [
        "ė",
        "Ď"
      ],
      [
        "ē",
        "ėĕ"
      ],
      [
        "Ĕ",
        "ĖĖĖĖ"
      ],
      [
        "Ėė",
        "ĖĖĖĖ"
      ],
      [
        "Ē",
        "ėė"
      ],
      [
        "ę",
        "Ę"
      ],
      [
        "đ",
        "Ėĕ"
      ],
      [
        "ėĕ",
        "Ėĕ"
      ],
      [
        "ĖĔ",
        "Ėĕ"
      ],
      [
        "ĖĔ",
        "Ėė"
      ],
      [
        "ĕ",
        "ĝ"
      ],
      [
        "Ĕ",
        "Ě"
      ],
      [
        "ėĕ",
        "Ėė"
      ],
      [
        "ĖĕĖĖ",
        "Ė"
      ],
      [
        "ĕ",
        "ĘĖĖ"
      ],
      [
        "Ĕ",
        "ď"
      ],
      [
        "ě",
        "ėĖ"
      ],
      [
        "ě",
        "ĕĖ"
      ],
      [
        "Ē",
        "ĕĕ"
      ],
      [
        "ĕ",
        "ēĖĖ"
      ],
      [
        "ē",
        "ę"
      ],
      [
        "ėė",
        "Ėė"
      ],
      [
        "ĔĖĖ",
        "ĕĖĖ"
      ],
      [
        "Ę",
        "Đ"
      ],
      [
        "Ě",
        "ę"
      ],
      [
        "Ĝ",
        "Ėĕ"
      ],
      [
        "đ",
        "ėĖ"
      ],
      [
        "Ę",
        "ėĖĖ"
      ],
      [
        "ę",
        "ē"
      ],
      [
        "ě",
        "Ėė"
      ],
      [
        "đ",
        "ĕĖ"
      ],
      [
        "ė",
        "Ğ"
      ],
      [
        "ē",
        "Ă"
      ],
      [
        "ĕė",
        "Ėė"
      ],
      [
        "ĝ",
        "ĖĖ"
      ],
      [
        "Ė",
        "ğ"
      ],
      [
        "Ē",
        "ĕė"
      ],
      [
        "Ėĕ",
        "ĕĖĖ"
      ],
      [
        "ĕĖ",
        "Ę"
      ],
      [
        "ėĖ",
        "Ĕ"
      ],
      [
        "Ę",
        "ď"
      ],
      [
        "ĘĖĖ",
        "ėĖĖ"
      ],
      [
        "ĕ",
        "Ğ"
      ],
      [
        "ę",
        "ĕė"
      ],
      [
        "ē",
        "đ"
      ],
      [
        "ė",
        "ĔĖĖ"
      ],
      [
        "ę",
        "ĖĔ"
      ],
      [
        "Ě",
        "ėė"
      ],
      [
        "ě",
        "ĕĕ"
      ],
      [
        "ė",
        "ęĖĖ"
      ],
      [
        "Ĕ",
        "Ď"
      ],
      [
        "ėĕĕ",
        "ĖĖ"
      ],
      [
        "Ē",
        "Ē"
      ],
      [
        "ĖĕĖĖ",
        "ĕĖĖ"
      ],
      [
        "Ĕ",
        "ě"
      ],
      [
        "Ę",
        "Ĝ"
      ],
      [
        "Ę",
        "ĕĖĖ"
      ],
      [
        "ę",
        "Ě"
      ],
      [
        "ĕĔ",
        "Ėė"
      ],
      [
        "ėĖĖ",
        "Ėĕ"
      ],
      [
        "ę",
        "Ē"
      ],
      [
        "ĕĖĖĖĖ",
        "Ė"
      ],
      [
        "ę",
        "Ĕ"
      ],
      [
        "ĖĖĖĖ",
        "ĖĖĖĖ"
      ],
      [
        "ę",
        "đ"
      ],
      [
        "ėĘ",
        "Ėĕ"
      ],
      [
        "Ē",
        "ėĕ"
      ],
      [
        "ē",
        "Đ"
      ],
      [
        "ė",
        "ğ"
      ],
      [
        "Ę",
        "ĕĔ"
      ],
      [
        "ėĖĖĖĖ",
        "Ė"
      ],
      [
        "Ę",
        "Ď"
      ],
      [
        "ē",
        "ĖĘ"
      ],
      [
        "Ĕ",
        "ĕĖĕ"
      ],
      [
        "ě",
        "ėĕ"
      ],
      [
        "ĖĔ",
        "ėĖ"
      ],
      [
        "Đ",
        "Ėė"
      ],
      [
        "ę",
        "Ė"
      ],
      [
        "Ėė",
        "ėĖ"
      ],
      [
        "Ėę",
        "Ėĕ"
      ],
      [
        "ď",
        "ĖĖ"
      ],
      [
        "Ĕ",
        "ĕĘ"
      ],
      [
        "ĕĖĖ",
        "ėĖĖ"
      ],
      [
        "ē",
        "Ė"
      ],
      [
        "đ",
        "ėė"
      ],
      [
        "ĖĔ",
        "ĕĖ"
      ],
      [
        "Ė",
        "ā"
      ],
      [
        "Ĕ",
        "Ĝ"
      ],
      [
        "Ėė",
        "ĕĖ"
      ],
      [
        "Ę",
        "ėĖĕ"
      ],
      [
        "Ę",
        "ėĔ"
      ],
      [
        "Ę",
        "ėĖė"
      ],
      [
        "ĕĖĖ",
        "Ėĕ"
      ],
      [
        "ę",
        "ě"
      ],
      [
        "ĕ",
        "ğ"
      ],
      [
        "ĖėĖĖ",
        "ėĖĖ"
      ],
      [
        "ę",
        "Ă"
      ],
      [
        "đ",
        "ē"
      ],
      [
        "ĕĔ",
        "Ėĕ"
      ],
      [
        "Ę",
        "ĝ"
      ],
      [
        "Ě",
        "Ě"
      ],
      [
        "ē",
        "ď"
      ],
      [
        "ĖĖ",
        "Ėĕ"
      ],
      [
        "ĖĘ",
        "Ėė"
      ],
      [
        "Ę",
        "Ėē"
      ],
      [
        "ĖĘ",
        "ėĖ"
      ],
      [
        "ĕĕ",
        "ĖĖĖĖ"
      ],
      [
        "Ě",
        "ē"
      ],
      [
        "ę",
        "Đ"
      ],
      [
        "Ĕ",
        "ĕĖė"
      ],
      [
        "Ě",
        "ĕė"
      ],
      [
        "ėė",
        "ĖĖĖĖ"
      ],
      [
        "ĕ",
        "ā"
      ],
      [
        "ĖĘ",
        "ĕĖ"
      ],
      [
        "Ē",
        "ę"
      ],
      [
        "Ĕ",
        "ėĖĖ"
      ],
      [
        "Ĕ",
        "ėĘ"
      ],
      [
        "Ě",
        "ĖĔ"
      ],
      [
        "Ėė",
        "ĕĕ"
      ],
      [
        "Ĕ",
        "Ėē"
      ],
      [
        "ĔĖĖ",
        "ėĖĖ"
      ],
      [
        "Ė",
        "ă"
      ],
      [
        "Ėĕ",
        "ĕĖ"
      ],
      [
        "ĘĖĖ",
        "ĕĖĖ"
      ],
      [
        "Ĕ",
        "ĕĔ"
      ],
      [
        "ę",
        "ď"
      ],
      [
        "Ę",
        "ĕĖė"
      ],
      [
        "Ĕ",
        "ėĖĕ"
      ],
      [
        "Ē",
        "đ"
      ],
      [
        "Ėĕ",
        "ėĖ"
      ],
      [
        "Ē",
        "Đ"
      ],
      [
        "Ę",
        "ĕĘ"
      ],
      [
        "ĝ",
        "Ėĕ"
      ],
      [
        "đ",
        "ĕĕ"
      ],
      [
        "Ĕ",
        "Ėę"
      ],
      [
        "Đ",
        "ėĖ"
      ],
      [
        "Ĝ",
        "ĕĖ"
      ],
      [
        "ĔĖĖ",
        "ĔĖĖ"
      ],
      [
        "ĖĖĖĖ",
        "ėĖĖ"
      ],
      [
        "Ę",
        "Ėę"
      ],
      [
        "Đ",
        "Ėĕ"
      ],
      [
        "Ĝ",
        "ėĖ"
      ],
      [
        "ĖĖĖĖ",
        "ĕĖĖ"
      ],
      [
        "Ę",
        "Ğ"
      ],
      [
        "ėĖĖĖĖ",
        "ĖĖ"
      ],
      [
        "ĖĕĖĖ",
        "ėĖĖ"
      ],
      [
        "ě",
        "ę"
      ],
      [
        "ėė",
        "ĕ"
      ],
      [
        "Ę",
        "ĕĖĕ"
      ],
      [
        "ĖėĖĖ",
        "ĕĖĖ"
      ],
      [
        "Ē",
        "ĖĘ"
      ],
      [
        "ē",
        "ĖĔ"
      ],
      [
        "Ĕ",
        "ĝ"
      ],
      [
        "Ėĕ",
        "ĕĕ"
      ],
      [
        "Ĝ",
        "Ėė"
      ],
      [
        "ĘĖĖ",
        "ĘĖĖ"
      ],
      [
        "ē",
        "Ě"
      ],
      [
        "ė",
        "ă"
      ],
      [
        "đ",
        "ĕė"
      ],
      [
        "Đ",
        "ĕĖ"
      ],
      [
        "Ė",
        "ĒĖĖ"
      ],
      [
        "Ĕ",
        "ėĔ"
      ],
      [
        "Ě",
        "Ē"
      ],
      [
        "ĕ",
        "ă"
      ],
      [
        "Ĝ",
        "ĕĕ"
      ],
      [
        "ě",
        "ėė"
      ],
      [
        "Ĕ",
        "ĔĖĖ"
      ],
      [
        "ėĕ",
        "ė"
      ],
      [
        "ĕĖĖ",
        "Ėė"
      ],
      [
        "ĕĘ",
        "Ėĕ"
      ],
      [
        "đ",
        "Ē"
      ],
      [
        "ē",
        "Ď"
      ],
      [
        "Ę",
        "ėĘ"
      ],
      [
        "đ",
        "ėĕ"
      ],
      [
        "ėė",
        "ė"
      ],
      [
        "Ė",
        "!"
      ],
      [
        "Ėē",
        "Ėė"
      ],
      [
        "ĕĖĖĖĖ",
        "ĖĖ"
      ],
      [
        "Ē",
        "ď"
      ],
      [
        "ĕ",
        "ĒĖĖ"
      ],
      [
        "ę",
        "ĖĘ"
      ],
      [
        "Ę",
        "ĖĕĖĖ"
      ],
      [
        "ėė",
        "ĕĕ"
      ],
      [
        "Ĕ",
        "ėĖė"
      ],
      [
        "ę",
        "Ď"
      ],
      [
        "Ėĕ",
        "ėĖĖ"
      ],
      [
        "Ĕ",
        "Ğ"
      ],
      [
        "Đ",
        "ē"
      ],
      [
        "ě",
        "ĖĔ"
      ],
      [
        "ĖĘ",
        "ĕĕ"
      ],
      [
        "ė",
        "ā"
      ],
      [
        "ė",
        "!"
      ],
      [
        "Ė",
        "ĚĖĖ"
      ],
      [
        "Ę",
        "ĘĖĖ"
      ],
      [
        "ę",
        "ĕĔ"
      ],
      [
        "đ",
        "đ"
      ],
      [
        "Ėė",
        "ėĖĖ"
      ],
      [
        "Ė",
        "\""
      ],
      [
        "ėĖ",
        "ĔĖĖ"
      ],
      [
        "Ě",
        "ě"
      ],
      [
        "ę",
        "Ĝ"
      ],
      [
        "Ę",
        "ğ"
      ],
      [
        "ĕėė",
        "ĖĖ"
      ],
      [
        "ĕĕ",
        "ĕĕ"
      ],
      [
        "ę",
        "ėĔ"
      ],
      [
        "Ę",
        "Ęĕ"
      ],
      [
        "Ę",
        "ĔĖ"
      ],
      [
        "ĕ",
        "!"
      ],
      [
        "ėĕ",
        "ĖĖĖĖ"
      ],
      [
        "Ĕ",
        "ĖėĖĖ"
      ],
      [
        "Ğ",
        "ĖĖ"
      ],
      [
        "ē",
        "ě"
      ],
      [
        "Ĝ",
        "ėĕ"
      ],
      [
        "ėĖĖ",
        "Ėė"
      ],
      [
        "Ē",
        "Ě"
      ],
      [
        "ĕĕ",
        "ė"
      ],
      [
        "ėĖ",
        "ē"
      ],
      [
        "Ē",
        "ĖĔ"
      ],
      [
        "ě",
        "ĕė"
      ],
      [
        "Ę",
        "ĘĖ"
      ],
      [
        "ĕĖ",
        "ĘĖĖ"
      ],
      [
        "Ĕ",
        "ĖĖĖĖĖ"
      ],
      [
        "ĕ",
        "ęĖĖ"
      ],
      [
        "ėĖ",
        "ĘĖĖ"
      ],
      [
        "Đ",
        "ėė"
      ],
      [
        "ėĖĕ",
        "ĕĖĖ"
      ],
      [
        "Ĕ",
        "ĘĖ"
      ],
      [
        "Ě",
        "Đ"
      ],
      [
        "ėĖĕ",
        "ėĖĖ"
      ],
      [
        "Ď",
        "ĖĖ"
      ],
      [
        "Ėē",
        "Ėĕ"
      ],
      [
        "ĕĖ",
        "ĔĖĖ"
      ],
      [
        "Ě",
        "đ"
      ],
      [
        "Ĕ",
        "ă"
      ],
      [
        "ę",
        "ĝ"
      ],
      [
        "Ē",
        "Ă"
      ],
      [
        "ę",
        "ĕ"
      ],
      [
        "Ě",
        "ĕĔ"
      ],
      [
        "ę",
        "ė"
      ],
      [
        "Ėē",
        "ėĖ"
      ],
      [
        "Ėė",
        "ĕĖĖ"
      ],
      [
        "ĕė",
        "ĖĖĖĖ"
      ],
      [
        "ĕė",
        "ĕĕ"
      ],
      [
        "ĕĖ",
        "ē"
      ],
      [
        "Ę",
        "ĘĖĕ"
      ],
      [
        "ėę",
        "Ėĕ"
      ],
      [
        "ď",
        "Ėĕ"
      ],
      [
        "Đ",
        "ĕĕ"
      ],
      [
        "Ėė",
        "ėė"
      ],
      [
        "Ę",
        "ă"
      ],
      [
        "Ę",
        "ĕē"
      ],
      [
        "ė",
        "\""
      ],
      [
        "Ę",
        "Ĕĕ"
      ],
      [
        "ĖĔ",
        "ĕĕ"
      ],
      [
        "ĖĖĖĖ",
        "Ėĕ"
      ],
      [
        "Ē",
        "Ď"
      ],
      [
        "Ėė",
        "ėĕ"
      ],
      [
        "Ě",
        "ď"
      ],
      [
        "ĕĖĖ",
        "ĔĖĖ"
      ],
      [
        "ē",
        "ĕĘ"
      ],
      [
        "ęĖĖ",
        "ėĖĖ"
      ],
      [
        "Ėė",
        "ė"
      ],
      [
        "ē",
        "ė"
      ],
      [
        "ě",
        "Ě"
      ],
      [
        "ėĖė",
        "Ėĕ"
      ],
      [
        "ę",
        "Ęĕ"
      ],
      [
        "Ėē",
        "ĕĖ"
      ],
      [
        "ę",
        "ĔĖ"
      ],
      [
        "Ė",
        "#"
      ],
      [
        "ĕĖė",
        "Ėĕ"
      ],
      [
        "ĕĖ",
        "Ĕ"
      ],
      [
        "ĖĘ",
        "ėĕ"
      ],
      [
        "Ę",
        "ĖĖĖĖĖ"
      ],
      [
        "ď",
        "Ėė"
      ],
      [
        "ĕĕ",
        "ĕ"
      ],
      [
        "đ",
        "Đ"
      ],
      [
        "Ėė",
        "ĕ"
      ],
      [
        "Ėę",
        "ėĖ"
      ],
      [
        "ĖĔ",
        "ėė"
      ],
      [
        "ē",
        "ėĘ"
      ],
      [
        "ē",
        "Ĝ"
      ],
      [
        "ēĖĖ",
        "ĕĖĖ"
      ],
      [
        "Ē",
        "ě"
      ],
      [
        "Ě",
        "ėĔ"
      ],
      [
        "Ėę",
        "ĕĖ"
      ],
      [
        "Ė",
        "Ĉ"
      ],
      [
        "Ėđ",
        "ĖĖ"
      ],
      [
        "Ĕ",
        "ā"
      ],
      [
        "ē",
        "ĕ"
      ],
      [
        "ę",
        "ĘĖ"
      ],
      [
        "ĕē",
        "Ėė"
      ],
      [
        "ĕĖĖ",
        "Ė"
      ],
      [
        "ė",
        "ĚĖĖ"
      ],
      [
        "ĕ",
        "\""
      ],
      [
        "ėĖ",
        "Ę"
      ],
      [
        "ėĖĕ",
        "Ėĕ"
      ],
      [
        "ę",
        "Ğ"
      ],
      [
        "ę",
        "ĖĖĖĖ"
      ],
      [
        "Ĕ",
        "ğ"
      ],
      [
        "đ",
        "ĖĘ"
      ],
      [
        "Ėě",
        "ĖĖ"
      ],
      [
        "ĝ",
        "ėĖ"
      ],
      [
        "Ě",
        "ĖĘ"
      ],
      [
        "ĖĔ",
        "ĖĖĖĖ"
      ],
      [
        "ėĔ",
        "Ėĕ"
      ],
      [
        "ėĖĖ",
        "ĘĖĖ"
      ],
      [
        "ĕĕ",
        "ėė"
      ],
      [
        "ĝ",
        "ĕĖ"
      ],
      [
        "ėĕ",
        "ėė"
      ],
      [
        "ĕĖĕ",
        "Ėĕ"
      ],
      [
        "đ",
        "Ě"
      ],
      [
        "Ėę",
        "Ėė"
      ],
      [
        "ė",
        "ēĖĖ"
      ],
      [
        "Ě",
        "Ĝ"
      ],
      [
        "Ē",
        "ĕĘ"
      ],
      [
        "ě",
        "ē"
      ],
      [
        "Ėė",
        "ĖĕĖĖ"
      ],
      [
        "ĝ",
        "Ėė"
      ],
      [
        "Ėĕ",
        "ėė"
      ],
      [
        "ĕĖė",
        "ĕĖ"
      ],
      [
        "Đ",
        "ėĕ"
      ],
      [
        "Ę",
        "ėĕĕ"
      ],
      [
        "ē",
        "ĘĖ"
      ],
      [
        "ėĖĖ",
        "ĕĕ"
      ],
      [
        "Đ",
        "Ē"
      ],
      [
        "ĕĖĕ",
        "ĕĖĖ"
      ],
      [
        "Ĝ",
        "ėė"
      ],
      [
        "Ě",
        "Ď"
      ],
      [
        "ď",
        "ĕĖ"
      ],
      [
        "ĕ",
        "ėĕĖĖ"
      ],
      [
        "Ę",
        "ęĖĖ"
      ],
      [
        "ď",
        "ėĖ"
      ],
      [
        "Ě",
        "ĘĖ"
      ],
      [
        "ę",
        "Ĕĕ"
      ],
      [
        "Đ",
        "ĕė"
      ],
      [
        "Ě",
        "ĔĖ"
      ],
      [
        "ĕĖĕ",
        "ĕĖ"
      ],
      [
        "ĖĔ",
        "ėĕ"
      ],
      [
        "Ĕ",
        "ĕē"
      ],
      [
        "ě",
        "Ē"
      ],
      [
        "ĖĖ",
        "Ėė"
      ],
      [
        "ėĘ",
        "Ėė"
      ],
      [
        "ē",
        "ĝ"
      ],
      [
        "ē",
        "ĖĖĖĖ"
      ],
      [
        "ėĖė",
        "ėĖ"
      ],
      [
        "Ē",
        "ĔĖ"
      ],
      [
        "ė",
        "#"
      ],
      [
        "Ĕ",
        "ēĖĖ"
      ],
      [
        "ĕ",
        "Ĉ"
      ],
      [
        "Ē",
        "ĘĖ"
      ],
      [
        "ĘĖĕ",
        "ėĖĖ"
      ],
      [
        "Ę",
        "ėĖĖĖĖ"
      ],
      [
        "ėĖĕ",
        "Ėė"
      ],
      [
        "ĕė",
        "ĕĖ"
      ],
      [
        "ĖėĖĖ",
        "ĘĖĖ"
      ],
      [
        "ĕ",
        "#"
      ],
      [
        "Ĕ",
        "ĖĕĖĖ"
      ],
      [
        "Ĝ",
        "ĕė"
      ],
      [
        "đ",
        "ę"
      ],
      [
        "ĕĖĕ",
        "Ėė"
      ],
      [
        "ĕĔ",
        "ėĖ"
      ],
      [
        "ĔĔ",
        "Ėĕ"
      ],
      [
        "đ",
        "ď"
      ],
      [
        "Ğ",
        "Ėĕ"
      ],
      [
        "ĖĘ",
        "ĖĖĖĖ"
      ],
      [
        "ĕĖĖ",
        "ĕĕ"
      ],
      [
        "ėĘ",
        "ĕĕ"
      ],
      [
        "ėĔ",
        "Ėė"
      ],
      [
        "Ę",
        "ā"
      ],
      [
        "ĖĕĖĖ",
        "ĔĖĖ"
      ],
      [
        "Ę",
        "!"
      ],
      [
        "Ě",
        "Ă"
      ],
      [
        "ĕĖĕ",
        "ėĖ"
      ],
      [
        "ĕē",
        "Ėĕ"
      ],
      [
        "Ě",
        "ĝ"
      ],
      [
        "Ĝ",
        "ĖĔ"
      ],
      [
        "ę",
        "ėĖĖ"
      ],
      [
        "Ě",
        "Ęĕ"
      ],
      [
        "ĖĚ",
        "Ėĕ"
      ],
      [
        "ė",
        "Ĉ"
      ],
      [
        "ē",
        "Ę"
      ],
      [
        "ėĖĕ",
        "ĕĖ"
      ],
      [
        "ėĖĕ",
        "ėĖ"
      ],
      [
        "ē",
        "ĔĖ"
      ],
      [
        "ęĖĖ",
        "ĘĖĖ"
      ],
      [
        "Đ",
        "Đ"
      ],
      [
        "Ē",
        "ėĘ"
      ],
      [
        "Ė",
        "$"
      ],
      [
        "ėė",
        "ėė"
      ],
      [
        "ĕĔ",
        "ĕĖ"
      ],
      [
        "Ē",
        "Ĝ"
      ],
      [
        "ē",
        "ă"
      ],
      [
        "ě",
        "ě"
      ],
      [
        "ėĖĕĖĖ",
        "Ė"
      ],
      [
        "Ĕĕ",
        "ĖĖĖĖ"
      ],
      [
        "ĝ",
        "ĕĕ"
      ],
      [
        "đ",
        "Ď"
      ],
      [
        "ę",
        "ėĖė"
      ],
      [
        "ĕĘ",
        "Ėė"
      ],
      [
        "ě",
        "ėĔ"
      ],
      [
        "ėĕ",
        "ĖėĖĖ"
      ],
      [
        "ėĖĖĖĖ",
        "ĖĖĖĖ"
      ],
      [
        "ĖĖĖĖĖĖ",
        "Ė"
      ],
      [
        "Ę",
        "ĔĔ"
      ],
      [
        "Ġ",
        "ĖĖ"
      ],
      [
        "ę",
        "ğ"
      ],
      [
        "ĕĕ",
        "ėĖ"
      ],
      [
        "ę",
        "ĕĘ"
      ],
      [
        "đ",
        "ĖĔ"
      ],
      [
        "ĕĖė",
        "ėĖ"
      ],
      [
        "ĕĖė",
        "Ėė"
      ],
      [
        "Ĕ",
        "!"
      ],
      [
        "Ė",
        "ć"
      ],
      [
        "ě",
        "ĕĔ"
      ],
      [
        "ē",
        "ĕĔ"
      ],
      [
        "ĝ",
        "ėĕ"
      ],
      [
        "ĔĔ",
        "Ėė"
      ],
      [
        "Ĕ",
        "Ęĕ"
      ],
      [
        "ē",
        "ėĔ"
      ],
      [
        "Ėĕ",
        "ĕ"
      ],
      [
        "ėė",
        "ĖĕĖĖ"
      ],
      [
        "Ĕ",
        "ėē"
      ],
      [
        "Ę",
        "ėē"
      ],
      [
        "ĕĖĖ",
        "ėĖ"
      ],
      [
        "ēĖĖ",
        "ĔĖĖ"
      ],
      [
        "ę",
        "ėĘ"
      ],
      [
        "ĕĖĖ",
        "ĕĖ"
      ],
      [
        "ē",
        "Ğ"
      ],
      [
        "ėĖĖ",
        "ĕĖ"
      ],
      [
        "Ĕ",
        "ėę"
      ],
      [
        "Ĝ",
        "ę"
      ],
      [
        "ĖĖĖĖ",
        "Ėė"
      ],
      [
        "Ėĕ",
        "ĖĕĖĖ"
      ],
      [
        "ĕĕ",
        "ėĖĖ"
      ],
      [
        "Ĕ",
        "Ĉ"
      ],
      [
        "Ėę",
        "ėĕ"
      ],
      [
        "Ėĕ",
        "ė"
      ],
      [
        "Ę",
        "ĖėĖĖ"
      ],
      [
        "ě",
        "đ"
      ],
      [
        "ĖĒ",
        "Ėė"
      ],
      [
        "Ę",
        "ėę"
      ],
      [
        "Ĝ",
        "Ě"
      ],
      [
        "Ėę",
        "ĕĕ"
      ],
      [
        "ėĖė",
        "ĕĖ"
      ],
      [
        "Ď",
        "Ėė"
      ],
      [
        "Ĕ",
        "Ęė"
      ],
      [
        "ė",
        "ć"
      ],
      [
        "ě",
        "ď"
      ],
      [
        "Đ",
        "ď"
      ],
      [
        "ĕ",
        "ęĖĕ"
      ],
      [
        "ĕĔ",
        "ėė"
      ],
      [
        "ĘĖĖ",
        "ĔĖĖ"
      ],
      [
        "ĕ",
        "đĖĖ"
      ],
      [
        "ĕĕ",
        "ĖĕĖĖ"
      ],
      [
        "ėė",
        "ĖĔ"
      ],
      [
        "ē",
        "ğ"
      ],
      [
        "đ",
        "ĕĘ"
      ],
      [
        "Ėĕ",
        "ĖėĖĖ"
      ],
      [
        "ĕĕ",
        "ĕĖ"
      ],
      [
        "ĕ",
        "$"
      ],
      [
        "ĘĖĕ",
        "ĕĖĖ"
      ],
      [
        "đ",
        "ėĘ"
      ],
      [
        "ĕĕ",
        "ĖėĖĖ"
      ],
      [
        "ėė",
        "ėĕ"
      ],
      [
        "ě",
        "Ď"
      ],
      [
        "ě",
        "ĔĖ"
      ],
      [
        "ĕė",
        "ĖĕĖĖ"
      ],
      [
        "Đ",
        "ĖĘ"
      ],
      [
        "Ě",
        "Ğ"
      ],
      [
        "ėė",
        "ĕĖĖ"
      ],
      [
        "Ę",
        "Ĉ"
      ],
      [
        "ė",
        "$"
      ],
      [
        "Ď",
        "ėĖ"
      ],
      [
        "Ę",
        "\""
      ],
      [
        "ĖĔĖĖ",
        "ĕĖĖ"
      ],
      [
        "Ē",
        "Ė"
      ],
      [
        "ėĕ",
        "ĖĕĖĖ"
      ],
      [
        "ĕĔ",
        "ĖĖĖĖ"
      ],
      [
        "Đ",
        "đ"
      ],
      [
        "ėĖĖ",
        "ĔĖĖ"
      ],
      [
        "Ē",
        "ĝ"
      ],
      [
        "ĕ",
        "ć"
      ],
      [
        "ĕĕĖĖ",
        "Ė"
      ],
      [
        "ĕĔ",
        "ĕĕ"
      ],
      [
        "ď",
        "ėė"
      ],
      [
        "Ě",
        "Ĕĕ"
      ],
      [
        "ě",
        "Ĝ"
      ],
      [
        "ğ",
        "ĖĖ"
      ],
      [
        "ėė",
        "ĕĖ"
      ],
      [
        "ĖĒ",
        "Ėĕ"
      ],
      [
        "đ",
        "ĔĖ"
      ],
      [
        "ėĖė",
        "Ėė"
      ],
      [
        "ėė",
        "ĖėĖĖ"
      ],
      [
        "ĕĖĖĖĖ",
        "ĖĖĖĖ"
      ],
      [
        "ĖĔ",
        "ĕė"
      ],
      [
        "Ē",
        "ėĔ"
      ],
      [
        "Ĕ",
        "ĘĖĖ"
      ],
      [
        "ĕĘ",
        "ĕĖ"
      ],
      [
        "ĕē",
        "ėĖ"
      ],
      [
        "ĕĕ",
        "ĕĖĖ"
      ],
      [
        "Ėĕ",
        "ĖĘ"
      ],
      [
        "ę",
        "ĔĔ"
      ],
      [
        "ĕĕĖĖ",
        "ĕĖĖ"
      ],
      [
        "ĕĖĕ",
        "ėĖĖ"
      ],
      [
        "ď",
        "ĕė"
      ],
      [
        "Ĕ",
        "ėĕĕ"
      ],
      [
        "ě",
        "ĖĘ"
      ],
      [
        "đ",
        "ĘĖ"
      ],
      [
        "ę",
        "Ėē"
      ],
      [
        "ĝ",
        "ĕė"
      ],
      [
        "Ėė",
        "ĖėĖĖ"
      ],
      [
        "ē",
        "ĕĖĖ"
      ],
      [
        "ė",
        "ĚĖĕ"
      ],
      [
        "ĕē",
        "ĕĖ"
      ],
      [
        "Ĕ",
        "ĘĖĕ"
      ],
      [
        "Ę",
        "#"
      ],
      [
        "ę",
        "ĘĖĖ"
      ],
      [
        "ėĘ",
        "ėĖ"
      ],
      [
        "ėĕ",
        "ėĖĖ"
      ],
      [
        "Ęĕ",
        "ĖĖĖĖ"
      ],
      [
        "Ě",
        "ĔĔ"
      ],
      [
        "Ę",
        "ĔĖĖ"
      ],
      [
        "ē",
        "ĕĖĕ"
      ],
      [
        "Ėė",
        "ĖĔ"
      ],
      [
        "Ę",
        "Ĕė"
      ],
      [
        "Ğ",
        "ĕĖ"
      ],
      [
        "ē",
        "ā"
      ],
      [
        "Ė",
        "%"
      ],
      [
        "Ėē",
        "ėė"
      ],
      [
        "ē",
        "Ĕĕ"
      ],
      [
        "ėė",
        "ĖĘ"
      ],
      [
        "ę",
        "ă"
      ],
      [
        "ĕĘ",
        "ėĖ"
      ],
      [
        "ėĕ",
        "ėĖ"
      ],
      [
        "ē",
        "Ėę"
      ],
      [
        "ĖĒ",
        "ėĖ"
      ],
      [
        "Đ",
        "Ď"
      ],
      [
        "Ĕ",
        "ĒĖĖ"
      ],
      [
        "ėĘ",
        "ĕĖ"
      ],
      [
        "Ėē",
        "ĕĕ"
      ],
      [
        "Ę",
        "ęĖĕ"
      ],
      [
        "ě",
        "Đ"
      ],
      [
        "ėė",
        "ėĖ"
      ],
      [
        "Ĕ",
        "ĘĘ"
      ],
      [
        "ėĖĖ",
        "ėĖ"
      ],
      [
        "ė",
        "ĒĖĖ"
      ],
      [
        "ĖĘĖĖ",
        "ėĖĖ"
      ],
      [
        "ě",
        "Ęĕ"
      ],
      [
        "ď",
        "ėĕ"
      ],
      [
        "Ė",
        "Ć"
      ],
      [
        "ĝ",
        "ėė"
      ],
      [
        "ėę",
        "Ėė"
      ],
      [
        "đ",
        "ě"
      ],
      [
        "ĖĖĖĖĖĖ",
        "Ėĕ"
      ],
      [
        "ę",
        "ĕĖė"
      ],
      [
        "Ę",
        "ĔĖė"
      ],
      [
        "Ĕ",
        "\""
      ],
      [
        "ėĖĖ",
        "ėĖĕ"
      ],
      [
        "ėĕĖĖ",
        "Ė"
      ],
      [
        "ęĖĖ",
        "ĕĖĖ"
      ],
      [
        "ę",
        "Ĕė"
      ],
      [
        "ę",
        "ėĖĕ"
      ],
      [
        "ď",
        "ĕĕ"
      ],
      [
        "Ē",
        "ĕĔ"
      ],
      [
        "Ď",
        "Ėĕ"
      ],
      [
        "ē",
        "Ęė"
      ],
      [
        "ēĖĖ",
        "ėĖĖ"
      ],
      [
        "Ē",
        "Ęė"
      ],
      [
        "Ę",
        "ć"
      ],
      [
        "Ē",
        "Ğ"
      ],
      [
        "Ėĕ",
        "ėĕ"
      ],
      [
        "ē",
        "Ėē"
      ],
      [
        "ĕĖė",
        "ĕĖĖ"
      ],
      [
        "ě",
        "ĘĖ"
      ],
      [
        "ĖĚ",
        "ĕĖ"
      ],
      [
        "Ė",
        "Ą"
      ],
      [
        "ĖĐ",
        "ĖĖ"
      ],
      [
        "ĕ",
        "ĚĖĖ"
      ],
      [
        "ėĘ",
        "ĖĖĖĖ"
      ],
      [
        "ėĘ",
        "ėĕ"
      ],
      [
        "Ğ",
        "ĕĕ"
      ],
      [
        "ĕĒ",
        "Ėė"
      ],
      [
        "ď",
        "Đ"
      ],
      [
        "Ĕ",
        "ēĖė"
      ],
      [
        "ĕ",
        "Ć"
      ],
      [
        "ę",
        "ėĕĕ"
      ],
      [
        "ē",
        "Ĕė"
      ],
      [
        "Ėĕ",
        "ĖĔ"
      ],
      [
        "Ėė",
        "ĖĖĖĖĖ"
      ],
      [
        "Ğ",
        "Ėė"
      ],
      [
        "ėĔ",
        "ĕĕ"
      ],
      [
        "ę",
        "Ĉ"
      ],
      [
        "ĕė",
        "ĖėĖĖ"
      ],
      [
        "ď",
        "ď"
      ],
      [
        "Ē",
        "Ĕĕ"
      ],
      [
        "ėĖĖ",
        "ėė"
      ],
      [
        "ĔĔ",
        "Ė"
      ],
      [
        "Ę",
        "ĚĖĖ"
      ],
      [
        "Ĝ",
        "ĕĔ"
      ],
      [
        "ę",
        "Ėę"
      ],
      [
        "ĕ",
        "Ą"
      ],
      [
        "ĘĖĖ",
        "ėĖĕ"
      ],
      [
        "đ",
        "Ă"
      ],
      [
        "Ĕ",
        "ėĖĖĖĖ"
      ],
      [
        "Ĕĕ",
        "ĖĕĖĖ"
      ],
      [
        "ėē",
        "Ėė"
      ],
      [
        "Ĕė",
        "ĖĕĖĖ"
      ],
      [
        "đ",
        "Ĝ"
      ],
      [
        "ė",
        "%"
      ],
      [
        "Ğ",
        "ėĖ"
      ],
      [
        "ĕĕ",
        "ĖĘ"
      ],
      [
        "Ď",
        "ĕĖ"
      ],
      [
        "ĕ",
        "%"
      ],
      [
        "ė",
        "Ć"
      ],
      [
        "ĕĖĕĖĖ",
        "Ė"
      ],
      [
        "ē",
        "Ęĕ"
      ],
      [
        "ę",
        "ĖĕĖĖ"
      ],
      [
        "ę",
        "!"
      ],
      [
        "ĖėĖĖ",
        "ĔĖĖ"
      ],
      [
        "ĔĖė",
        "ĕĖĖ"
      ],
      [
        "Đ",
        "ĖĔ"
      ],
      [
        "Ė",
        ","
      ],
      [
        "ĖĒ",
        "ĕĖ"
      ],
      [
        "ē",
        "ĔĘ"
      ],
      [
        "ĕĕ",
        "ĖĔ"
      ],
      [
        "Đ",
        "ĕĘ"
      ],
      [
        "Ē",
        "Ęĕ"
      ],
      [
        "Ě",
        "ğ"
      ],
      [
        "ě",
        "ĔĔ"
      ],
      [
        "Ě",
        "ĕĘ"
      ],
      [
        "Ě",
        "ėĘ"
      ],
      [
        "Ėĕ",
        "ĔĖĖ"
      ],
      [
        "ĕĕ",
        "ėĕ"
      ],
      [
        "ĕĖĕ",
        "ĔĖĖ"
      ],
      [
        "ĖĚ",
        "ėĖ"
      ],
      [
        "Ē",
        "Ĕė"
      ],
      [
        "ĖĜ",
        "ĖĖ"
      ],
      [
        "ē",
        "ĕĖė"
      ],
      [
        "ė",
        "ą"
      ],
      [
        "ĖĘ",
        "ėė"
      ],
      [
        "Ě",
        "Ė"
      ],
      [
        "Ęĕ",
        "ĖėĖĖ"
      ],
      [
        "Đ",
        "ĘĖ"
      ],
      [
        "ėę",
        "ĕĖ"
      ],
      [
        "ď",
        "đ"
      ],
      [
        "ĝ",
        "ĖĔ"
      ],
      [
        "ĖĕĖĖ",
        "Ėĕ"
      ],
      [
        "ĕĔ",
        "ėĕ"
      ],
      [
        "ĕē",
        "ėė"
      ],
      [
        "Ĝ",
        "ėĔ"
      ],
      [
        "Ē",
        "ĔĘ"
      ],
      [
        "ė",
        "ěĖĖ"
      ],
      [
        "Ę",
        "$"
      ],
      [
        "Ėē",
        "ėĕ"
      ],
      [
        "Ď",
        "Đ"
      ],
      [
        "Ęė",
        "ĖėĖĖ"
      ],
      [
        "Ē",
        "Ėę"
      ],
      [
        "ėĖĕ",
        "ĕĕ"
      ],
      [
        "Ė",
        "&"
      ],
      [
        "ĔĖĖ",
        "ēĖĖ"
      ],
      [
        "ėę",
        "ĕĕ"
      ],
      [
        "ĖĖĖĖ",
        "ĘĖĖ"
      ],
      [
        "Ė",
        "ą"
      ],
      [
        "ĕĖĕ",
        "ĕĕ"
      ],
      [
        "Ĕ",
        "ć"
      ],
      [
        "Ęė",
        "ĖĕĖĖ"
      ],
      [
        "ĘĖĖ",
        "ęĖĖ"
      ],
      [
        "Ĕĕ",
        "ĖėĖĖ"
      ],
      [
        "Ĝ",
        "ĔĖ"
      ],
      [
        "Ę",
        "ĕĕĖĖ"
      ],
      [
        "Ĕ",
        "#"
      ],
      [
        "ĕ",
        "ą"
      ],
      [
        "Ę",
        "ėĕĖĖ"
      ],
      [
        "ę",
        "ĕĖĖ"
      ],
      [
        "Ĝ",
        "Ē"
      ],
      [
        "ėĕĕ",
        "Ėĕ"
      ],
      [
        "Ď",
        "ėė"
      ],
      [
        "ē",
        "Ĉ"
      ],
      [
        "ę",
        "\""
      ],
      [
        "ĖĚ",
        "Ėė"
      ],
      [
        "ė",
        ","
      ],
      [
        "ė",
        "Ą"
      ],
      [
        "ĕĘ",
        "Ė"
      ],
      [
        "ď",
        "ĖĘ"
      ],
      [
        "đ",
        "ėĔ"
      ],
      [
        "ėĕĕ",
        "Ėė"
      ],
      [
        "ĖĔĖĖ",
        "ĔĖĖ"
      ],
      [
        "Ĝ",
        "ě"
      ],
      [
        "Ġ",
        "Ėĕ"
      ],
      [
        "ĔĖĕ",
        "ĕĖĖ"
      ],
      [
        "Ě",
        "Ėē"
      ],
      [
        "ėĕ",
        "ėĕ"
      ],
      [
        "ĘĖĖ",
        "ĘĖĕ"
      ],
      [
        "ĘĘ",
        "Ėė"
      ],
      [
        "ėėĖĖ",
        "ėĖĖ"
      ],
      [
        "Đ",
        "ėĘ"
      ],
      [
        "ĕ",
        ","
      ],
      [
        "ėę",
        "ėĖ"
      ],
      [
        "ĖĖ",
        "ėĖ"
      ],
      [
        "Ď",
        "ď"
      ],
      [
        "Ĕ",
        "Ą"
      ],
      [
        "Ę",
        "ĖĕĖĖĖ"
      ],
      [
        "ėē",
        "Ėĕ"
      ],
      [
        "ĖėĖĕ",
        "ĕĖĖ"
      ],
      [
        "ė",
        "&"
      ],
      [
        "Ėě",
        "Ėĕ"
      ],
      [
        "Ę",
        "%"
      ],
      [
        "Ě",
        "Ĕė"
      ],
      [
        "ē",
        "ĔĖĖ"
      ],
      [
        "Ę",
        "ĔĖĕ"
      ],
      [
        "ĖĕĖĖ",
        "ĘĖĖ"
      ],
      [
        "ē",
        "ėĖĕ"
      ],
      [
        "ĕĕĖĖ",
        "ėĖĖ"
      ],
      [
        "Ē",
        "ă"
      ],
      [
        "ĝ",
        "Ě"
      ],
      [
        "Ėė",
        "ĖĘ"
      ],
      [
        "ĖĕĖĖ",
        "ė"
      ],
      [
        "ėĘ",
        "Ė"
      ],
      [
        "Ĕĕ",
        "ėė"
      ],
      [
        "ē",
        "ĖėĖĖ"
      ],
      [
        "ĖėĖĖ",
        "Ėĕ"
      ],
      [
        "ĕĖė",
        "ĕĕ"
      ],
      [
        "ėĖĖĖĖ",
        "ĖĕĖĖ"
      ],
      [
        "ĖĔĖĖ",
        "ėĖĖ"
      ],
      [
        "ę",
        "ĕē"
      ],
      [
        "ėĔ",
        "Ė"
      ],
      [
        "ĕĖė",
        "ėĖĖ"
      ],
      [
        "ę",
        "Ęė"
      ],
      [
        "ĕĖĖ",
        "ĘĖĖ"
      ],
      [
        "Ėē",
        "ĕė"
      ],
      [
        "ę",
        "ĘĖĕ"
      ],
      [
        "ď",
        "Ē"
      ],
      [
        "ėĖĕ",
        "ĘĖĖ"
      ],
      [
        "ę",
        "ā"
      ],
      [
        "ę",
        "ĖĖĖĖĖ"
      ],
      [
        "ėĖĕ",
        "ĔĖĖ"
      ],
      [
        "ĕĘ",
        "ėė"
      ],
      [
        "Ę",
        ","
      ],
      [
        "ě",
        "Ĕĕ"
      ],
      [
        "ď",
        "Ď"
      ],
      [
        "Ė",
        "'"
      ],
      [
        "Ę",
        "Ć"
      ],
      [
        "ę",
        "ć"
      ],
      [
        "ĖĖĖĖ",
        "ĔĖĖ"
      ],
      [
        "ėĔ",
        "ĕĖ"
      ],
      [
        "ĕĘ",
        "ĕĕ"
      ],
      [
        "Đ",
        "ĔĖ"
      ],
      [
        "đ",
        "ĕĔ"
      ],
      [
        "Ĝ",
        "ĖĘ"
      ],
      [
        "ĕĖĕ",
        "ėė"
      ],
      [
        "ĕĒ",
        "Ėĕ"
      ],
      [
        "ď",
        "ē"
      ],
      [
        "ĕĖĖ",
        "ėė"
      ],
      [
        "ėĖĖ",
        "ĖĕĖĖ"
      ],
      [
        "ĕē",
        "ĕĕ"
      ],
      [
        "Ĕ",
        "$"
      ],
      [
        "ęĖĕ",
        "ėĖĖ"
      ],
      [
        "ė",
        "'"
      ],
      [
        "ĕĔ",
        "ĕė"
      ],
      [
        "ĔĖĖ",
        "Ėĕ"
      ],
      [
        "Ĕ",
        "ĘĖė"
      ]
    ]
  }
}