{
  "version": "1.0",
  "truncation": null,
  "padding": null,
  "added_tokens": [],
  "normalizer": null,
  "pre_tokenizer": {
    "type": "ByteLevel",
    "add_prefix_space": false,
    "trim_offsets": true,
    "use_regex": true
  },
  "post_processor": {
    "type": "ByteLevel",
    "add_prefix_space": true,
    "trim_offsets": false,
    "use_regex": true
  },
  "decoder": {
    "type": "ByteLevel",
    "add_prefix_space": true,
    "trim_offsets": true,
    "use_regex": true
  },
  "model": {
    "type": "BPE",
    "dropout": null,
    "unk_token": null,
    "continuing_subword_prefix": null,
    "end_of_word_suffix": null,
    "fuse_unk": false,
    "byte_fallback": false,
    "ignore_merges": false,
    "vocab": {
      "\u0000": 0,
      "\u0001": 1,
      "\u0002": 2,
      "\u0003": 3,
      "\u0004": 4,
      "\u0005": 5,
      "\u0006": 6,
      "\u0007": 7,
      "\b": 8,
      "\t": 9,
      "\n": 10,
      "\u000b": 11,
      "\f": 12,
      "\r": 13,
      "\u000e": 14,
      "\u000f": 15,
      "\u0010": 16,
      "\u0011": 17,
      "\u0012": 18,
      "\u0013": 19,
      "\u0014": 20,
      "\u0015": 21,
      "\u0016": 22,
      "\u0017": 23,
      "\u0018": 24,
      "\u0019": 25,
      "\u001a": 26,
      "\u001b": 27,
      "\u001c": 28,
      "\u001d": 29,
      "\u001e": 30,
      "\u001f": 31,
      " ": 32,
      "!": 33,
      "\"": 34,
      "#": 35,
      "$": 36,
      "%": 37,
      "&": 38,
      "'": 39,
      "(": 40,
      ")": 41,
      "*": 42,
      "+": 43,
      ",": 44,
      "Ā": 45,
      "ā": 46,
      "Ă": 47,
      "ă": 48,
      "Ą": 49,
      "ą": 50,
      "Ć": 51,
      "ć": 52,
      "Ĉ": 53,
      "ĉ": 54,
      "Ċ": 55,
      "ċ": 56,
      "Č": 57,
      "č": 58,
      "Ď": 59,
      "ď": 60,
      "Đ": 61,
      "đ": 62,
      "Ē": 63,
      "ē": 64,
      "Ĕ": 65,
      "ĕ": 66,
      "Ė": 67,
      "ė": 68,
      "Ę": 69,
      "ę": 70,
      "Ě": 71,
      "ě": 72,
      "Ĝ": 73,
      "ĝ": 74,
      "Ğ": 75,
      "ğ": 76,
      "Ġ": 77,
      "ĖĖ": 78,
      "ĖĖĖĖ": 79,
      "ĖĖĖĖĖĖĖĖ": 80,
      "Ėĕ": 81,
      "Ėė": 82,
      "ĖĖĖĖĖ": 83,
      "ėĀ": 84,
      "ĖĖĖĖĖĖĖĖĖĖĖĖĖ": 85,
      "ĖĖĕ": 86,
      "ėĀĖĖĖĖĖĖĖĖĖĖĖĖĖ": 87,
      "ĖĖė": 88,
      "ėĕ": 89,
      "ĖĖĖ": 90,
      "ĖĔ": 91,
      "ĖĘ": 92,
      "ĖĖĖĕ": 93,
      "ĖĖĖė": 94,
      "ėĖĕ": 95,
      "ĕĕ": 96,
      "Ėėĕ": 97,
      "ĖĖĔ": 98,
      "Ėĕĕ": 99,
      "ėė": 100,
      "ėĖė": 101,
      "ėĖĖĖĖĖĖĖĖ": 102,
      "ĖĖĖĖĕ": 103,
      "ĖĖĘ": 104,
      "ĖĖĖĖĖĕ": 105,
      "ĖĖĖĖĖĖĖĖĖĖĖ": 106,
      "ĖĖĖĖė": 107,
      "Ėē": 108,
      "ĖĖĖĖĖė": 109,
      "ĖĖĕĖĖĕ": 110,
      "Ėę": 111,
      "ėĔ": 112,
      "ėĖĖė": 113,
      "ėā": 114,
      "ėĖĖ": 115,
      "ĕĖė": 116,
      "ĖĕĖĖĕ": 117,
      "ėĖĖĖĖĖĖĖĖĖĖĖĖ": 118,
      "Ęĕ": 119,
      "ĖĖĖĖĖĖ": 120,
      "ĖĖĕĖĖ": 121,
      "ĖĖėĖĖ": 122,
      "ĕĖĕ": 123,
      "ėĖĖĖĖ": 124,
      "ĖĒ": 125,
      "ĘĖĕ": 126,
      "ėĖĖĕ": 127,
      "ĖĖĖĖĖĖĖĖĖĖĖĖ": 128,
      "ĖĕĖĖĖĖĖĖĖĖĖĖĖ": 129,
      "ėĂ": 130,
      "ĖĚ": 131,
      "ĖĖĖĖĖĖĖĖĖ": 132,
      "ėĖĔ": 133,
      "ĖĖĕĖė": 134,
      "ĔĖė": 135,
      "ĖĖĖĖĖĖĖė": 136,
      "ĖĖėĖĕ": 137,
      "Ĕĕ": 138,
      "ĖĖĖĖĖĖĖĕ": 139,
      "ėĘ": 140,
      "ĘĀ": 141,
      "ĕĖĖ": 142,
      "ĖĀ": 143,
      "ėē": 144,
      "ėă": 145,
      "ĖĖē": 146,
      "ĘĖė": 147,
      "ĖĖėĖė": 148,
      "ėĖĘ": 149,
      "ėĕĖĖĖĖĖĖĖĖĖĖĖ": 150,
      "ėĖ": 151,
      "ėĄ": 152,
      "ėĕĖĖĕ": 153,
      "ėĖĖĖė": 154,
      "ĖĕĖĖė": 155,
      "ĖĖę": 156,
      "ĖĕĖė": 157,
      "ĖĖĖĖĖĖĖĖĖĖ": 158,
      "ĕĖĘ": 159,
      "ėĕĖė": 160,
      "ĕĔ": 161,
      "ėą": 162,
      "Ėđ": 163,
      "ėĕĕ": 164,
      "ĖĖĕĖĕ": 165,
      "ĔĖĕ": 166,
      "ėĖĖĖĕ": 167,
      "ėę": 168,
      "Ėě": 169,
      "ėĒ": 170,
      "ĖĖėĖĖė": 171,
      "ėĆ": 172,
      "ĖėĕĖė": 173,
      "ĕĖĔ": 174,
      "ėć": 175,
      "ĕĖĖĕ": 176,
      "ĔĖĘ": 177,
      "ĖĕĖĖĖĖĖĖĖĖ": 178,
      "ėĈ": 179,
      "ĖĖĖĖĖĖĕ": 180,
      "Ėā": 181,
      "ĖĕĖĖĖ": 182,
      "ėđ": 183,
      "ĖėĖĖĖ": 184,
      "ĖĐ": 185,
      "ĖėĕĖĖ": 186,
      "ėĐ": 187,
      "ĘĔ": 188,
      "Ęā": 189,
      "ėĎ": 190,
      "ėď": 191,
      "ĖĜ": 192,
      "ėėĖĕ": 193,
      "ĘĖĔ": 194,
      "ėĕĖĕ": 195,
      "ĖėĖĖė": 196,
      "ĘĖĖ": 197,
      "ĖĖĖĖĖĖė": 198,
      "ėĚ": 199,
      "ĔĖĖ": 200,
      "ĖĕĖĕ": 201,
      "ėĖē": 202,
      "ėĕĖĖĖĖĖĖĖĖ": 203,
      "ĖĕĕĖė": 204,
      "Ėď": 205,
      "Ęē": 206,
      "ėĖĖĖĖĖė": 207,
      "ĖĖĕĖĖė": 208,
      "ęĕ": 209,
      "ĖĖĕĖĖĖĖĖ": 210,
      "ĖĕĖĖĖĖĖĕ": 211,
      "ĖĕĕĖĖ": 212,
      "ėėĕ": 213,
      "ėĖĖĖĖĖ": 214,
      "ĖĖĕĕ": 215,
      "ĖĖėĖĖĖĖĖ": 216,
      "ĖĕĖĖĕĖĖĕ": 217,
      "ĖĖĖėĖĖ": 218,
      "ēĕ": 219,
      "ĖĖĖĖĖĕĖĖ": 220,
      "ĖĖĖĕĖĖ": 221,
      "ėĖĖĘ": 222,
      "ĖėĕĖĕ": 223,
      "ĖĕĕĖĕ": 224,
      "ĖĎ": 225,
      "Ėĝ": 226,
      "ĘĘ": 227,
      "ĖĂ": 228,
      "ĖĖėĕ": 229,
      "ėě": 230,
      "ęĖĕ": 231,
      "ėĖĖĖĖĕ": 232,
      "ĔĖĔ": 233,
      "ĀĖĖĖĖĖĖĖĖĖĖĖĖ": 234,
      "ĖĖĖĖĕĕ": 235,
      "ĖĖĕĖĖĖ": 236,
      "Ėă": 237,
      "ēĖė": 238,
      "ėĖę": 239,
      "ĖĖĖĖĖėĖĖ": 240,
      "ĘĖĖė": 241,
      "ĘĂ": 242,
      "ėĀėĕ": 243,
      "ĘĒ": 244,
      "ėĖĖĖ": 245,
      "ĖĖĒ": 246,
      "ĖĖĔĖė": 247,
      ",ĖĖĖĖĖĖĖĖĖĖĖĖ": 248,
      "ĖĄ": 249,
      "ĖĕėĖĕ": 250,
      "ĘĖĘ": 251,
      "Ęę": 252,
      "ėĜ": 253,
      "ĕē": 254,
      "ĔĖĖĕ": 255,
      "ėĖĖĖĖĖĕ": 256,
      "ĖĖėĖĖĖ": 257,
      "ĖĞ": 258,
      "ĖĖĕĖĖĕĖĖ": 259,
      "ėėĖė": 260,
      "ėĀĖĕ": 261,
      "Ęă": 262,
      "Ęđ": 263,
      "Ėą": 264,
      "ĕĕĕ": 265,
      "ėĕĖĖĕĖĖĕ": 266,
      "ėĖĖĖĖė": 267,
      "ĖĖĚ": 268,
      "ĖĖĖėĖĕ": 269,
      "ĖĈ": 270,
      "ĘĚ": 271,
      "ĖĆ": 272,
      "ĔĔ": 273,
      "Ėć": 274,
      "ĘĄ": 275,
      "ĘĐ": 276,
      "ėĝ": 277,
      "ĖĖėĖĖĕ": 278,
      "ĖĖĖĕĖė": 279,
      "ėĕĖĖĖĖĖĕ": 280,
      "ęĖė": 281,
      "Ęď": 282,
      "ĘĎ": 283,
      "ĕĖę": 284,
      "ĖĖĔĖĖ": 285,
      "ĖėĖĕ": 286,
      "Ęą": 287,
      "ĘĖĖĕ": 288,
      "ĖĔĖĖĕ": 289,
      "ĖĖĖėĖė": 290,
      "Ėğ": 291,
      "ĘĖĖĘ": 292,
      "ĖĔĕ": 293,
      "ĖĕĔ": 294,
      "ėĞ": 295,
      "Ęě": 296,
      "ĘĆ": 297,
      "ĖĕĖĖĕĖĖĖĖĖĖĖĖ": 298,
      "ĖĖĖĖėĖĖĖ": 299,
      "ĘĈ": 300,
      "ĕĖĖė": 301,
      "Ęć": 302,
      "ĖĖĖĖĕĖĖĖ": 303,
      "ĖėĖĖĕ": 304,
      "ēĖĘ": 305,
      "ėĖĖėĖĖ": 306,
      "Ęĕĕ": 307,
      "ėāĖĖĖĖĖĖĖĖĖĖĖĖĖ": 308,
      "ĖĖĖĖĔ": 309,
      "ėğ": 310,
      "ėĀĖĕĖĖĖĖĖĖĖĖĖĖĖ": 311,
      "ĔĖę": 312,
      "ĖĖĖĖĖĖĖĖĕ": 313,
      "ĖĕĖĖĖĖĕ": 314,
      "ėĖėĕ": 315,
      "ĖĖĖĖėĕ": 316,
      "ĖĕĖĖĖĖĖė": 317,
      "ĖĖėĖĖėĖĖ": 318,
      "ĖĖĖĔ": 319,
      "ĘĜ": 320,
      "ĕĖėĕ": 321,
      "ĕĖē": 322,
      "ĕĀ": 323,
      "ęĀ": 324,
      "ėĖĒ": 325,
      "ĕĒ": 326,
      "ĕę": 327,
      "ĖėĖė": 328,
      "ēĖĕ": 329,
      "ĖĖĘĖĕ": 330,
      "ĘĖē": 331,
      "Ęĝ": 332,
      "ĕĖĕĕ": 333,
      "ĖėĖĖ": 334,
      "ėĖĖĔ": 335,
      "ėĕĖĖĕĖĖĖĖĖĖĖĖ": 336,
      "ĖĖĖĖėė": 337,
      "ĖĖĖĕĖĕ": 338,
      "ėĖĖĖĖĖĖĖĖĖĖ": 339,
      "ĖĖĖĖĖĖĖėĖĖĖ": 340,
      "ėĖĖėĖĕ": 341,
      "ĕĘ": 342,
      "ĕĕĖė": 343,
      "ĖĖĖĖėĖĕ": 344,
      "ėĀėĖĖĖĖĖĖĖĖĖĖĖĖ": 345,
      "ĕĚ": 346,
      "ĖĕĖĕĕ": 347,
      "ĖĖĖĖĘ": 348,
      "Ė!": 349,
      "ĖĖĖĖĖĖĖĕĖĖĖ": 350,
      "ĖĕĖĖ": 351,
      "ėėĖĖė": 352,
      "ĖĔĖė": 353,
      "ĘĞ": 354,
      "ĖĕĖėĕ": 355,
      "ėĕĖĕĕ": 356,
      "ĘĕĖė": 357,
      "ęĖĔ": 358,
      "ĔĖėĕ": 359,
      "ėĕĖĖĖĖĖė": 360,
      "ĖĖĘĖĖ": 361,
      "ėĕĖĖĖĖė": 362,
      "ėĕĖėĕ": 363,
      "ĖĖĔĖĕ": 364,
      "ė!": 365,
      "ĕĖĖĖĖĖĖĖĖ": 366,
      "ĘėĖĕ": 367,
      "ĖĖĖĖĖĖėĖĖ": 368,
      "ėĀĖĖĖĖĖĖĖĖ": 369,
      "ĖĖĖĖĖĕĖĖĖ": 370,
      "ėĖĖėĖė": 371,
      "ĖĖĖĖĖėĖĖĖ": 372,
      "ėĖĚ": 373,
      "Ęğ": 374,
      "ĖĖĖĕĖĖĖĖĖ": 375,
      "ė\"": 376,
      "ėĘĖĕ": 377,
      "ĖĖĖĖĖĖĕĖĖ": 378,
      "ėĕĖĖĖĖĕ": 379,
      "ĕĖ": 380,
      "ĕě": 381,
      "ėĖĕĖĖĖ": 382,
      "ėĕĖĖė": 383,
      "ĖĖĖĖĖĖĖĖė": 384,
      "Ĕē": 385,
      "ĖĖĘĖė": 386,
      "ĘĖĖĖĖĖĖĖĖĖĖĖĖ": 387,
      "ĕđ": 388,
      "Ė\"": 389,
      "ĖĖĖĖėĖĖė": 390,
      "ėĖĕĖĖĕ": 391,
      "ėĔĖė": 392,
      "ĖĖđ": 393,
      "ĖĖĕĖĖĕĖĖĖĖĖ": 394,
      "ėĔĖĖĕ": 395,
      "ĖĖĖĖĖĔ": 396,
      "Ė,": 397,
      "ė,": 398,
      "ĔĖē": 399,
      "ĖĖĖĘ": 400,
      "ė#": 401,
      "ėĖĕĕ": 402,
      "ĖĖĔĖĖĕ": 403,
      "ĕĕĖĖĕ": 404,
      "ĖĖĖėĖĖĖĖĖ": 405,
      "Ę!": 406,
      "ė$": 407,
      "ęĔ": 408,
      "ĘĖę": 409,
      "ĕĜ": 410,
      "ėĖĕėĖĕ": 411,
      "ĖĖě": 412,
      "ĘĖĖĖĖĖĖĖĖ": 413,
      "ėĀėĖĖĖĖĖĖĖĖ": 414,
      "ĖĕĖĖĖĖė": 415,
      "Ė#": 416,
      "ęĚ": 417,
      "ĔĖĖĔ": 418,
      "ėĖėĖĖĖ": 419,
      "ĖĖĖĖĕĖĖĕ": 420,
      "ĕĐ": 421,
      "ęĒ": 422,
      "Ęėė": 423,
      "ĔĖĕĕ": 424,
      "ėāĖĕĖĖĖĖĖĖĖĖĖĖĖ": 425,
      "ĖĖėĖĖĖĖĖĖĖĖĖĖ": 426,
      "ėĂĖĖĖĖĖĖĖĖĖĖĖĖĖ": 427,
      "ėĀėĕĖĖĖĖĖĖĖĖĖĖĖ": 428,
      "ęĖĘ": 429,
      "ėĖĕĖĖė": 430,
      "ĖĕĖĖĖĖĖĕĖĖĖĖĖ": 431,
      "ĖĖĖĕĕ": 432,
      "Ę\"": 433,
      "ėĖėĖĖė": 434,
      "ĕĕĖĖĖĖĖĖĖĖĖĖĖ": 435,
      "ėĕėĖĕ": 436,
      "ēĖĔ": 437,
      "ĖĘĕ": 438,
      "ėĘĕ": 439,
      "Ę,": 440,
      "ĕĖĖĖĖĖĖĖĖĖĖĖĖ": 441,
      "ėĖĕĖĖĖĖĖĖĖĖĖĖ": 442,
      "Ė$": 443,
      "ēĔ": 444,
      "ĖĔĖĖĔ": 445,
      "Ęėĕ": 446,
      "ęĖĖ": 447,
      "ĕĝ": 448,
      "ĖĖĖĖĖėĖĕ": 449,
      "ĖĖĖĕĖĖĕ": 450,
      "ęę": 451,
      "ēĖĖ": 452,
      "ėĕĖĖĕĖė": 453,
      "ėĖėĖĖĕ": 454,
      "ĕā": 455,
      "ĒĖė": 456,
      "ĕĖĚ": 457,
      "Ę$": 458,
      "ĖĕĖĖĕĖĖĕĖĖĖĖĖ": 459,
      "ĖĖĖĖĖĖĖĖĖĖėĖĖ": 460,
      "ė%": 461,
      "ėĖĖĕĖĖĕ": 462,
      "ēĖę": 463,
      "ĖĖĕĖĖĖĖĖĖĖĖĖĖ": 464,
      "ęā": 465,
      "Ę#": 466,
      "ĕĕĖĕ": 467,
      "ĖėĕĖĖĖĖĖ": 468,
      "ĖĖĖĖĖĖĖėĖĖĖĖĖ": 469,
      "ĕď": 470,
      "ęě": 471,
      "ĖėĕĖĘ": 472,
      "ėĖĖĖĖĖĖĖĖĖėĖĖ": 473,
      "ėĕĕĖĕ": 474,
      "ĖĖĕĖĖĖĖĖĖĖĖĖ": 475,
      "ĕĖĖĖĖĖĖĖĖĖĖĖ": 476,
      "ėāėĖĖĖĖĖĖĖĖĖĖĖĖ": 477,
      "ĕ,": 478,
      "ėĖđ": 479,
      "ĖĖĖĖĖĕĖė": 480,
      "ĚĖĕ": 481,
      "ĖĕĖĖĖĖĖĖĖĖĕĖĖ": 482,
      "ĕĖĒ": 483,
      "ęđ": 484,
      "ĖĖĕĖėĖĖĖ": 485,
      "ĕĞ": 486,
      "ĖĖėĖĕĖĖĖ": 487,
      "Ė%": 488,
      "ĕĖĖĖ": 489,
      "ė&": 490,
      "ĖĖĖĖĖĕĖĖĖĖĖ": 491,
      "ĕĎ": 492,
      "ĖĕĖĖĔ": 493,
      "ĖĖėĖĖĖĖĖĖ": 494,
      "ėĖĖĖĖĖĖėĖĖĖĖĖ": 495,
      "ĖĕĖĖĖĖĖĖĖĖĖĖĕ": 496,
      "ėĖėėĖė": 497,
      "ĖĖĖĖėĖĖĕ": 498,
      "ęē": 499,
      "ėĖėĖĖĖĖĖĖĖĖĖĖ": 500,
      "ĖĖĖĖĖĖĖĕĖĖĖĖĖ": 501,
      "ĖĕĕĖĖĖĖĖ": 502,
      "ĖĖĖĖĖĖĖĖĖĖĕĖĖ": 503,
      "ĔĒ": 504,
      "ėĀĖĖĖĕ": 505,
      "ėĖĖĖĖĖĖė": 506,
      "ĕėė": 507,
      "ĖĕĖĖĖĖĖĖĖĖėĖĖ": 508,
      "ęĜ": 509,
      "ĔĖĖė": 510,
      "ėĕĖĘ": 511,
      "Ĕĕĕ": 512,
      "ėĖĖĖĖĖĖĖĖĖĖĖ": 513,
      "ĕğ": 514,
      "ėĖĖĖĖĖĖĖĖĖĕĖĖ": 515,
      "ĖĖĖĖĕĖĖė": 516,
      "ĖĔĖĖė": 517,
      "ĖĖĖĖĖĘ": 518,
      "ėĖĖĖĖĖĖĕ": 519,
      "ęĐ": 520,
      "ėĀĖĖĖė": 521,
      "ėĀėĖĖĕ": 522,
      "ĖĖĖĖĖĖĖĖĖĖĖĖĕ": 523,
      "ĖĕĕĖĘ": 524,
      "ęĂ": 525,
      "ėĖėėĖĕ": 526,
      "ė'": 527,
      "ĔĖĚ": 528,
      "ęă": 529,
      "Ę%": 530,
      "ĖĕĖĖĕĖė": 531,
      "ėĕĕĕ": 532,
      "ėăĖĖĖĖĖĖĖĖĖĖĖĖĖ": 533,
      "ėĖĖĖĖĖĖĕĖĖĖĖĖ": 534,
      "ĘĖĖĖė": 535,
      "Ę)": 536,
      "ė)": 537,
      "ĘĖĒ": 538,
      "ĖĖĕĖĖĕĖė": 539,
      "ėĕĖĖĖĖĖĖĖĖĕĖĖ": 540,
      "ėĕĖĖĖĖĖĕĖĖĖĖĖ": 541,
      "ĖĖėĖĖĖĖĖĖĖĖĖ": 542,
      "ėĖě": 543,
      "ėĕĖĖĔ": 544,
      "Ė&": 545,
      "ĖĖĘĖĖė": 546,
      "ęď": 547,
      "ė(": 548,
      "ĕĖĖĔ": 549,
      "ĖĔĖĕ": 550,
      "ĕĖėĖĖĕ": 551,
      "ĚĖė": 552,
      "ęĖē": 553,
      "ęĝ": 554,
      "ęĄ": 555,
      "ėĕĖĖĕĖĖĕĖĖĖĖĖ": 556,
      "ĖĔĖėĕ": 557,
      "ėĖĖėĖĖĖĖĖ": 558,
      "ĖĖĖĖėĖĖĖĖĖĖĖĖ": 559,
      "ėĕĔ": 560,
      "ĕĖĖĖĖ": 561,
      "ęĎ": 562,
      "ĖĕĖĖĖĖĖĖĖĖĖĖė": 563,
      "ĖĖĖĖĖėĖė": 564,
      "Ę&": 565,
      "ėĖĖĖĖĖĖĖĖĖĖĖė": 566,
      "ėĔĖĕ": 567,
      "ėĀėĖĖė": 568,
      "ėĖĕėĖĖ": 569,
      "ĕă": 570,
      "ĕ!": 571,
      "ĕĂ": 572,
      "Ė'": 573,
      "ĖĖĖĖĖĖĕĖĖĖĖĖĖ": 574,
      "ĖĖĖĖĖĖĖĖĖĖĖĖė": 575,
      "ėĕĖĖĖĖĖĖĖĖėĖĖ": 576,
      "ĘĕĖĖĕ": 577,
      "ĖĕĕĖĔ": 578,
      "ĕĄ": 579,
      "ēĖĖĕ": 580,
      "ęĞ": 581,
      "ėĔĕ": 582,
      "ĘĖĖĖĕ": 583,
      "ĖĖĖĖĖĖĖĖĖė": 584,
      "Ēĕ": 585,
      "ĖĘĖĕ": 586,
      "ėĕėė": 587,
      "ėĖėėĖĖ": 588,
      "ėĕĖĖĖĖĖĖĖĖĖĖė": 589,
      "ėāĖĕ": 590,
      "ėĖėĖė": 591,
      "Ěĕ": 592,
      "ėāėĕĖĖĖĖĖĖĖĖĖĖĖ": 593,
      "ėĖĖĖĖĖĖĖĖĖĖĖĕ": 594,
      "ĖĖĖĕĖĖĕĖĖ": 595,
      "ĖĖĕĖĖĕĖĖĕĖĖ": 596,
      "ĒĖĕ": 597,
      "ĘĕĖĕ": 598,
      "Ę(": 599,
      "ėĖĖĖėĖĖĖĖĖĖĖĖ": 600,
      "ĖĘĖĖė": 601,
      "ĕ\"": 602,
      "ĕĈ": 603,
      "ĕĖĖĖĖĖ": 604,
      "ęĕĕ": 605,
      "ĖĖĖĖĖĕĖĕ": 606,
      "ĖĖĖĖĖĖĖ": 607,
      "ėĖĖĖėĖė": 608,
      "ęą": 609,
      "ęğ": 610,
      "ĖĖĖĖĖĖĖĖĖĕ": 611,
      "Ĕ,": 612,
      "ĕć": 613,
      "ĒĖĘ": 614,
      "ĖĖĕĖĕĖĖĖ": 615,
      "ėĖĖĕĖĖ": 616,
      "ĔĚ": 617,
      "Ę'": 618,
      "ĕĖĖĖė": 619,
      "ę,": 620,
      "ęĖĖė": 621,
      "ĖĖĖėĖĖėĖĖ": 622,
      "ĕą": 623,
      "ĖĖĐ": 624,
      "ĖĖĔĖĖė": 625,
      "ĕĆ": 626,
      "ēē": 627,
      "Ė(": 628,
      "ęĈ": 629,
      "ėĖĕĖė": 630,
      "ĖĖĘĖĖĕ": 631,
      "ėĔĖėĕ": 632,
      "ĘĕĖĖĖĖĖĖĖĖĖĖĖ": 633,
      "ĕĖėĖĖė": 634,
      "ėĕĖĖĖĖĖĖĖĖĖĖĕ": 635,
      "Ĕėė": 636,
      "ĖĖēĖė": 637,
      "ĘėĖė": 638,
      "ĖĕĕĖĖĖĖĖĖĖĖĖĖ": 639,
      "ėĄĖĖĖĖĖĖĖĖĖĖĖĖĖ": 640,
      "Ĕě": 641,
      "ėĀĖĕĖė": 642,
      "ĖĔĕĖĕ": 643,
      "ĕĖėĖĖĖĖĖĖĖĖĖ": 644,
      "ęć": 645,
      "ĖĘĖĖĕ": 646,
      "ĖĖĖĖĖėĖĖĖĖĖ": 647,
      "Ĕđ": 648,
      "ĖĖĖĖĖĖĖėĖĖ": 649,
      "ęĆ": 650,
      "ĖĖĖĖĖĖĖĖėĖĖ": 651,
      "ĖĖĕĖĖĕĖĕ": 652,
      "ĖĖėĖėĖĖĖ": 653,
      "ĖĔėĖĕ": 654,
      "ĖĕĖĖĖĖĖĖ": 655,
      "ĖĖĖĖĖĖĖĖĖėĖĖĖ": 656,
      "ĘĖĚ": 657,
      "Ėĕĕĕ": 658,
      "ĕĖėĖĖĖ": 659,
      "ĖĖĖĖĖĖĖĖĕĖĖ": 660,
      "ĖĕėĖĖĖĖĖĖĖĖĖĖ": 661,
      "ĕ#": 662,
      "ĔĖĒ": 663,
      "ĖĖĖĖĖĖĖĖĖĕĖĖĖ": 664,
      "ĖĖĜ": 665,
      "ĕė": 666,
      "ėĔĖĖĔ": 667,
      "ĖėĕĖĖĕĖĖ": 668,
      "ėĀĖĕĖĖĕ": 669,
      "ĕėĖĕ": 670,
      "ĖĖĖĖĕĖĖĖĖĖĖĖĖ": 671,
      "ėĖĖėĖĖė": 672,
      "ėĖĖĖĕĖĖĖĖĖĖĖĖ": 673,
      "ĖĖĖĖĕĕĖĖ": 674,
      "ėĖĖĕĖė": 675,
      "ĖĖĖĖėĖė": 676,
      "ĖĖĖĖĖĖĖĕĖĖ": 677,
      "ĖĕĕĖĖĖĖĕ": 678,
      "ėĕĖĔ": 679,
      "Ė)": 680,
      "ĕ$": 681,
      "ĘĖĖę": 682,
      "Ėĕėė": 683,
      "ĕĖě": 684,
      "ėĖĐ": 685,
      "ĖĖėĖĕėĖĖ": 686,
      "Ĕę": 687,
      "ēĖē": 688,
      "ĚĖĔ": 689,
      "ĖĖĖĖĖėĖĖĕ": 690,
      "ĖĖĖėĖĖĕ": 691,
      "ĖĖĖĖėĕĖĖ": 692,
      "ĘĖĖĔ": 693,
      "ĖėĕĖĔ": 694,
      "ėĖĖĖĖĖĖĖĖėĖĖĖ": 695,
      "ĖĕĖĘ": 696,
      ",Ď": 697,
      "ĀĐ": 698,
      "ĖĕĕĖĖĕĖĖ": 699,
      "ėĕĕĖĖĖĖĖĖĖĖĖĖ": 700,
      "ĖĖĔĖĖĕĖĖ": 701,
      "ĖĖĖĖĖĕĖĖĕ": 702,
      "ę!": 703,
      "ĖĖĖėĖĖė": 704,
      "ėĖĖĖĖĖĖĖĖĕĖĖĖ": 705,
      "ĘĘĖĕ": 706,
      "ėĕĖĕĖĖė": 707,
      "ĖĕĕĖĖĕ": 708,
      "ėĕėĖĖĖĖĖĖĖĖĖĖ": 709,
      "ĖĖĖĕĖĖė": 710,
      "ĘĖ": 711,
      "ĖĖĖėĕ": 712,
      "ėąĖĖĖĖĖĖĖĖĖĖĖĖĖ": 713,
      "ĖĕĖĖĕĖĖĕĖĖĕĖĖ": 714,
      "ĘĖĖĖĖ": 715,
      "ĔĀ": 716,
      "ĖĖĖĖĖĕĖĖė": 717,
      "ĖėĔ": 718,
      "ĔĜ": 719,
      "ĖĖĖĖėėĖĖ": 720,
      "ėĕĖĖĖĖĖĖĖė": 721,
      "ęĖĖĕ": 722,
      "Āđ": 723,
      "ėĕĖĖĖĖĖĖĖĕ": 724,
      "ėĖĖĖĖĖėĖĖĖĖĖĖ": 725,
      "ėĘĖė": 726,
      "ĖĖĖĖĖėĖĖė": 727,
      "ę\"": 728,
      "ĕ%": 729,
      "ēĖĖĔ": 730,
      "ęĖę": 731,
      "ėėĖĔ": 732,
      "ėĖĖĕĕ": 733,
      "ĖĖĖĖėĖĖĖĖĖ": 734,
      "ĖĖĘĖĖĘ": 735,
      "ėĂėĖĖĖĖĖĖĖĖĖĖĖĖ": 736,
      "ĖĖĖĖĕĖĖĖĖĖĖ": 737,
      "ĘĔĖė": 738,
      "ĕĖĕĖĖė": 739,
      "ĔĐ": 740,
      "ėĖĖĕĖĖė": 741,
      "ėĂĖĕĖĖĖĖĖĖĖĖĖĖĖ": 742,
      "ĖĖĕĖĖĖĖĕ": 743,
      "ėĀėĕĖė": 744,
      "Āď": 745,
      "ĖĖĖĕĖĘ": 746,
      "ėėĔ": 747,
      "ĘĕĖĘ": 748,
      "ĕĖđ": 749,
      "ēĖĚ": 750,
      "ėĀĕĕ": 751,
      "ēĒ": 752,
      "ĖĕĖĖĖĖĖĖĖė": 753,
      "ĖĕĖĖĖĖĖĖĖĕ": 754,
      "ĖĖĖĖĖĖėĖĕ": 755,
      "ęĘ": 756,
      "ėĖĕėĖė": 757,
      "ĘėĖĖė": 758,
      "ĖĕėĖĖĖĖ": 759,
      "ĖĖĖėĖĔ": 760,
      "ĖĖĖĖĕėĖĖ": 761,
      "ĖĖĕĖĖĕĖĖĖ": 762,
      "Ĕĝ": 763,
      "ĖĕėĖĖ": 764,
      "ĕ&": 765,
      "ėėĕĖė": 766,
      "ėĖĖėĖĖėĖĖ": 767,
      "ėėĖĖĕ": 768,
      "ĀĒ": 769,
      "ĕĖĖĖĕ": 770,
      "ę#": 771,
      "ĘĖĕĕ": 772,
      "ėĖĜ": 773,
      "ĖĕĖĖĖĖĖĕĖĖĕĖĖ": 774,
      "ĖĖĖĖĖĖĖĖĖĖĕ": 775,
      "ĖĕĖĖĕĖĖĖ": 776,
      "ĖĖĔĖĘ": 777,
      "ĖėĕĖėĖĖĖ": 778,
      "ėėĕĕ": 779,
      "ėĀėĕĖĖĕ": 780,
      "ĔĖ": 781,
      "ĖĖėĖĖĖĖĕ": 782,
      "ĘĔĕ": 783,
      "ĖĖĖĖĖĖĖėĖĖėĖĖ": 784,
      "ėĖĖĖĖĖĖĖĕ": 785,
      "Ėĕē": 786,
      "ėĆĖĖĖĖĖĖĖĖĖĖĖĖĖ": 787,
      "ĚĚ": 788,
      "ĔĞ": 789,
      "ĕ'": 790,
      "ĖĖĖĖĖĖĕĖė": 791,
      "ĔĕĖĕ": 792,
      "ę$": 793,
      "ėĖĖĖĖĖĖĖė": 794,
      "ĖĖĖĕĖĖĖĖĖĖĖĖĖ": 795,
      "ĔĕĖė": 796,
      "ĖĖĖĖĖĕĖĖĕĖĖ": 797,
      "ė*": 798,
      "ĘĖđ": 799,
      "ėĕėĕ": 800,
      "ĖĕėĖė": 801,
      "ĖĖėėĖĕ": 802,
      "Ęė": 803,
      "ĖĕĖėĖĖĕ": 804,
      "ĀĎ": 805,
      "ĔĖě": 806,
      "ėĖĖĖĖĖĕĖĖĖĖĖĖ": 807,
      "ĕĖĕĖĖĖ": 808,
      "ĖĖĕĖėĖĖĕ": 809,
      "ėĕĖĖĖĖĖĖĖėĖĖĖ": 810,
      "ē,": 811,
      "ėĖĖĖĖĖĖėĖĖėĖĖ": 812,
      "ēĕĕ": 813,
      "ĖĖĖĖėĖĖĖĖĖĖ": 814,
      "ĖĖėĖĖėĖĖĖĖĖ": 815,
      "ĕĔĖė": 816,
      "Ĕď": 817,
      "Ěě": 818,
      "ĖĕĖĔ": 819,
      "ĖĖĔĖĖĔ": 820,
      "ĖĖĖĖĖĖėĖĖĖĖĖĖ": 821,
      "ĖĕĖĖĖĖĖĖĖėĖĖĖ": 822,
      "ĘĔĖĕ": 823,
      "ĖĕĖĖĖĖĖėĖĖĖĖĖ": 824,
      "Ĕğ": 825,
      "ĚĀ": 826,
      "ĖēĖė": 827,
      "ĘĖĖėĖĖ": 828,
      "ėĖĕĖĖĖĖĖĖĖĖĖ": 829,
      "ĖĖĖĖĖĖĖĖĖĖė": 830,
      "ĒĖę": 831,
      "ęĖĖĘ": 832,
      "ĘĖĖėĖĕ": 833,
      "ĒĖĔ": 834,
      "ĖĖėĖėėĖĖ": 835,
      "ėĖĖĕĖĖĖĖĖĖĖĖĖ": 836,
      "ĖĖĕĖėĖĖė": 837,
      "ėėĖ": 838,
      "ėĕĖĖĕĖĖĕĖĖĕĖĖ": 839,
      "ėĕĖĖĖĖĖĖĖĕĖĖĖ": 840,
      "ĖĕĖĖĖĖĖĖĖĕĖĖĖ": 841,
      "ĖĖĖĖĖĖĕĖĖĖ": 842,
      "ėăėĖĖĖĖĖĖĖĖĖĖĖĖ": 843,
      "ėĖĖĖĕĖė": 844,
      "ęĕĖė": 845,
      "ėēĖė": 846,
      "ėĕĖĖĖĖ": 847,
      "Ěđ": 848,
      "ĖĘĖė": 849,
      "Ė*": 850,
      "ĕĖĖĖĖĕ": 851,
      "ĕ(": 852,
      "ĖĖĘĖĖĖ": 853,
      "ĖĖėĖĖėĖĖĖ": 854,
      "ĘĖĖĖĖĖ": 855,
      "ėĕĖ": 856,
      "ĔĖĖĕĖĖ": 857,
      "ėĕėĖĖĖĖ": 858,
      "ĖĕĖĖĖĖĕĖĖĖĖĖĖ": 859,
      "ĖėĕĖĖĕ": 860,
      "ĖĖĖĖĖĖėĖĖĖ": 861,
      "ĚĒ": 862,
      "ĖĖęĖĕ": 863,
      "ĕĕĕĕ": 864,
      "ĔĖĖē": 865,
      "ĔĘ": 866,
      "ĖĖď": 867,
      "ĖĔĖĕĕ": 868,
      "ę%": 869,
      "ĖĖĔĖĖĖ": 870,
      "ĖĖĝ": 871,
      "ĕĖĖĘ": 872,
      "ĕĖĖĖĖĖĕ": 873,
      "ĖĕĖĖĖĖĕĕ": 874,
      "ęĖĒ": 875,
      "ėćĖĖĖĖĖĖĖĖĖĖĖĖĖ": 876,
      "ĕėĘ": 877,
      "ĔĎ": 878,
      "ĖėĖĔ": 879,
      "ĖĕĖėĖĖĖĖĖĖĖĖĖ": 880,
      "ėĕĖĖ": 881,
      "ėĖĖĖėĖĖė": 882,
      "Ě,": 883,
      "ĚĄ": 884,
      "ĖĖĖĖėĖĖėĖĖĖĖĖ": 885,
      "ęėĕ": 886,
      "ĖĘĖĖĖ": 887,
      "ėėĖĖ": 888,
      "ĖĕĖĖĕĖĖĖĖĖ": 889,
      "Ěă": 890,
      "ėĕĖĖĖĖĖėĖĖĖĖĖ": 891,
      "ėėĖĖĘ": 892,
      "ĖĔĖĖĕĖĖĕ": 893,
      "ĚĖĘ": 894,
      "ėėĖĘ": 895,
      "ĕĔĖĖĕ": 896,
      "ĖĔĖĖĖ": 897,
      "ėĖĖĖėĖĕ": 898,
      "ĕ)": 899,
      "ĘĖĖėĖė": 900,
      "ĚĜ": 901,
      "ēđ": 902,
      "ĖĖĖĕĖėĖĖĖ": 903,
      "ĖĖĖĖĕĖė": 904,
      ",ď": 905,
      "Ĕ!": 906,
      "ĘĖĕėĖĕ": 907,
      "ĖĖĖĖĖĖĖĕĖĖĕĖĖ": 908,
      "ėĂėĕĖĖĖĖĖĖĖĖĖĖĖ": 909,
      "ĖĕĖĖĕĖĖė": 910,
      "ĖĖĖĖĖĖėĖĖĖĖĖ": 911,
      "ĚĐ": 912,
      "ĕĖĜ": 913,
      "ĘĖĖĖĖĖė": 914,
      "ėĖď": 915,
      "ĖėėĖĖ": 916,
      "ĕĕĖĘ": 917,
      "ĖĖĕĖĖĖĖĖĖ": 918,
      "ĕĖĖĕĖĖĖĖĖ": 919,
      "ĖėĖĖĘ": 920,
      "ėĖĖĕĖĕ": 921,
      "ėĖĖĘĖĕ": 922,
      "ėĖĖĖĖĖĖĖĖĖ": 923,
      "ėĕĖĖĖĖėĖĖĖĖĖĖ": 924,
      "ėĖĖĖėĖĖėĖĖĖĖĖ": 925,
      "ėĀĘĕ": 926,
      "ĔėĘ": 927,
      "ĖĖĖĖĖėĖĖėĖĖ": 928,
      "ĔĕĖĖĖĖĖĖĖĖĖĖĖ": 929,
      ",Ĉ": 930,
      "ēĖėĕ": 931,
      "ĖėėĖė": 932,
      "ĔĖĖĕĖė": 933,
      "ĖĖĕĖĖėĖĖĖ": 934,
      "ĕĕĖĕĕ": 935,
      "ėĈĖĖĖĖĖĖĖĖĖĖĖĖĖ": 936,
      "ėĔĖĘ": 937,
      "ėėėė": 938,
      "ėĖĖĖĖĖĖĕĖĖĕĖĖ": 939,
      "ę&": 940,
      "ĖĖĔĕ": 941,
      "ėĕĖėĖĖė": 942,
      "ĖĕĖĕĖĖė": 943,
      "ĔĖĖĖĖĖ": 944,
      "ėĕĖĖĖĖĖĕĖĖĕĖĖ": 945,
      "ĔĖđ": 946,
      "ĖĕĖĖĕĖĖĖĖĖĕĖĖ": 947,
      "ĖĖĖėĖĘ": 948,
      "ėĄėĖĖĖĖĖĖĖĖĖĖĖĖ": 949,
      "Ĕ\"": 950,
      "ĖĖĔĖĖĖĖĖ": 951,
      "ēě": 952,
      "ĕĕĖ": 953,
      "ĖĖĖĖĖĖėĖė": 954,
      "ĖēĖĖĕ": 955,
      "đĖė": 956,
      "ĖĖĖĕĖĖĖĖĕ": 957,
      "ĔĖĖĖĖĖĖĖĖĖĖĖĖ": 958,
      "ėĖĔĖĖĕ": 959,
      "ĖĖĖėĖĕĖĖĖ": 960,
      "Ėĕėĕ": 961,
      "ėĕĖėĖĖĖĖĖĖĖĖĖ": 962,
      "ėĖĕĕĖė": 963,
      "ėĀĖĕĖĕ": 964,
      "ĕĖĕĖĖĖĖĖĖĖĖĖ": 965,
      "ĔĕĖĖĕ": 966,
      "ėĔĖĕĕ": 967,
      "ĖĖėĖĖėĖĖėĖĖ": 968,
      "Ĕā": 969,
      "ĘĖě": 970,
      "ĘėĔ": 971,
      "Ěą": 972,
      "ĖĖĖĖĕĖĖĖĖĖ": 973,
      "ĖĕĖĕĖĖĕ": 974,
      "Ĕ#": 975,
      "ėĖĖĖĖĖėĖĖ": 976,
      "ĖėĖĖėĖĕ": 977,
      "ĕĕĔ": 978,
      "ė+": 979,
      "ĖĕĖĖėĖĖĖ": 980,
      "Ěď": 981,
      "ĕĕĖėĕ": 982,
      "ĕĕĖĖė": 983,
      "ĔĖėĖĖĖ": 984,
      "ĕĖĖĕĖĖ": 985,
      "ĚĖē": 986,
      "ĕĕĘ": 987,
      "Ěā": 988,
      "ĖĖėėĖĖ": 989,
      "ėăĖĕĖĖĖĖĖĖĖĖĖĖĖ": 990,
      "ĖĖĖĕĖĔ": 991,
      "ęėė": 992,
      "Ěĝ": 993,
      "ĖĖĕĕĖĖ": 994,
      "ęĖĖĖĖĖĖĖĖĖĖĖĖ": 995,
      "ĔėĖĕ": 996,
      "ėĕē": 997,
      "ĖĖĕĕĖė": 998,
      "ėĕĖĕĖĖĕ": 999,
      "ĖĖėĕĖė": 1000,
      "ĘĘĖė": 1001,
      "ęĖĖę": 1002,
      "ĖĖĕėĖĖ": 1003,
      "ĒĒ": 1004,
      "ėĀĖĖĖĖĖĖĕ": 1005,
      "ėąėĖĖĖĖĖĖĖĖĖĖĖĖ": 1006,
      "ĖĖėĖĖĖĕ": 1007,
      "ĖĖĖĖĖĖĕĖĕ": 1008,
      "ĕĔĕ": 1009,
      "ęėĖĕ": 1010,
      "ěĖĕ": 1011,
      "Ĕ$": 1012,
      "ĕĖĖĕĖĖĖĖĖĖĖĖ": 1013,
      "ĖĖĖĖĕĕĖė": 1014,
      "ĖĕĕĖĖĖĖė": 1015,
      "ę'": 1016,
      "Ę*": 1017,
      "ĚĎ": 1018,
      "ĖĔĖĘ": 1019,
      "ĖĖĖĖĖĖĕĖĖĖĖĖ": 1020,
      "Ė+": 1021,
      "ĀĈ": 1022,
      "ĖĖėĕĖĖ": 1023
    },
    "merges": [
      [
        "Ė",
        "Ė"
      ],
      [
        "ĖĖ",
        "ĖĖ"
      ],
      [
        "ĖĖĖĖ",
        "ĖĖĖĖ"
      ],
      [
        "Ė",
        "ĕ"
      ],
      [
        "Ė",
        "ė"
      ],
      [
        "ĖĖĖĖ",
        "Ė"
      ],
      [
        "ė",
        "Ā"
      ],
      [
        "ĖĖĖĖĖĖĖĖ",
        "ĖĖĖĖĖ"
      ],
      [
        "ĖĖ",
        "ĕ"
      ],
      [
        "ėĀ",
        "ĖĖĖĖĖĖĖĖĖĖĖĖĖ"
      ],
      [
        "ĖĖ",
        "ė"
      ],
      [
        "ė",
        "ĕ"
      ],
      [
        "ĖĖ",
        "Ė"
      ],
      [
        "Ė",
        "Ĕ"
      ],
      [
        "Ė",
        "Ę"
      ],
      [
        "ĖĖ",
        "Ėĕ"
      ],
      [
        "ĖĖ",
        "Ėė"
      ],
      [
        "ė",
        "Ėĕ"
      ],
      [
        "ĕ",
        "ĕ"
      ],
      [
        "Ėė",
        "ĕ"
      ],
      [
        "ĖĖ",
        "Ĕ"
      ],
      [
        "Ėĕ",
        "ĕ"
      ],
      [
        "ė",
        "ė"
      ],
      [
        "ė",
        "Ėė"
      ],
      [
        "ė",
        "ĖĖĖĖĖĖĖĖ"
      ],
      [
        "ĖĖĖĖ",
        "ĕ"
      ],
      [
        "ĖĖ",
        "Ę"
      ],
      [
        "ĖĖĖĖ",
        "Ėĕ"
      ],
      [
        "ĖĖĖĖĖĖĖĖ",
        "ĖĖĖ"
      ],
      [
        "ĖĖĖĖ",
        "ė"
      ],
      [
        "Ė",
        "ē"
      ],
      [
        "ĖĖĖĖ",
        "Ėė"
      ],
      [
        "ĖĖĕ",
        "ĖĖĕ"
      ],
      [
        "Ė",
        "ę"
      ],
      [
        "ė",
        "Ĕ"
      ],
      [
        "ė",
        "ĖĖė"
      ],
      [
        "ė",
        "ā"
      ],
      [
        "ė",
        "ĖĖ"
      ],
      [
        "ĕ",
        "Ėė"
      ],
      [
        "Ėĕ",
        "ĖĖĕ"
      ],
      [
        "ėĖĖĖĖĖĖĖĖ",
        "ĖĖĖĖ"
      ],
      [
        "Ę",
        "ĕ"
      ],
      [
        "ĖĖĖĖ",
        "ĖĖ"
      ],
      [
        "ĖĖĕ",
        "ĖĖ"
      ],
      [
        "ĖĖė",
        "ĖĖ"
      ],
      [
        "ĕ",
        "Ėĕ"
      ],
      [
        "ė",
        "ĖĖĖĖ"
      ],
      [
        "Ė",
        "Ē"
      ],
      [
        "Ę",
        "Ėĕ"
      ],
      [
        "ė",
        "ĖĖĕ"
      ],
      [
        "ĖĖĖĖĖĖĖĖ",
        "ĖĖĖĖ"
      ],
      [
        "Ėĕ",
        "ĖĖĖĖĖĖĖĖĖĖĖ"
      ],
      [
        "ė",
        "Ă"
      ],
      [
        "Ė",
        "Ě"
      ],
      [
        "ĖĖĖĖĖĖĖĖ",
        "Ė"
      ],
      [
        "ė",
        "ĖĔ"
      ],
      [
        "ĖĖĕ",
        "Ėė"
      ],
      [
        "Ĕ",
        "Ėė"
      ],
      [
        "ĖĖĖĖ",
        "ĖĖĖė"
      ],
      [
        "ĖĖė",
        "Ėĕ"
      ],
      [
        "Ĕ",
        "ĕ"
      ],
      [
        "ĖĖĖĖ",
        "ĖĖĖĕ"
      ],
      [
        "ė",
        "Ę"
      ],
      [
        "Ę",
        "Ā"
      ],
      [
        "ĕ",
        "ĖĖ"
      ],
      [
        "Ė",
        "Ā"
      ],
      [
        "ė",
        "ē"
      ],
      [
        "ė",
        "ă"
      ],
      [
        "ĖĖ",
        "ē"
      ],
      [
        "Ę",
        "Ėė"
      ],
      [
        "ĖĖė",
        "Ėė"
      ],
      [
        "ė",
        "ĖĘ"
      ],
      [
        "ėĕ",
        "ĖĖĖĖĖĖĖĖĖĖĖ"
      ],
      [
        "ė",
        "Ė"
      ],
      [
        "ė",
        "Ą"
      ],
      [
        "ėĕ",
        "ĖĖĕ"
      ],
      [
        "ė",
        "ĖĖĖė"
      ],
      [
        "Ėĕ",
        "ĖĖė"
      ],
      [
        "ĖĖ",
        "ę"
      ],
      [
        "Ėĕ",
        "Ėė"
      ],
      [
        "ĖĖĖĖĖĖĖĖ",
        "ĖĖ"
      ],
      [
        "ĕ",
        "ĖĘ"
      ],
      [
        "ėĕ",
        "Ėė"
      ],
      [
        "ĕ",
        "Ĕ"
      ],
      [
        "ė",
        "ą"
      ],
      [
        "Ė",
        "đ"
      ],
      [
        "ėĕ",
        "ĕ"
      ],
      [
        "ĖĖĕ",
        "Ėĕ"
      ],
      [
        "Ĕ",
        "Ėĕ"
      ],
      [
        "ė",
        "ĖĖĖĕ"
      ],
      [
        "ė",
        "ę"
      ],
      [
        "Ė",
        "ě"
      ],
      [
        "ė",
        "Ē"
      ],
      [
        "ĖĖė",
        "ĖĖė"
      ],
      [
        "ė",
        "Ć"
      ],
      [
        "Ėėĕ",
        "Ėė"
      ],
      [
        "ĕ",
        "ĖĔ"
      ],
      [
        "ė",
        "ć"
      ],
      [
        "ĕ",
        "ĖĖĕ"
      ],
      [
        "Ĕ",
        "ĖĘ"
      ],
      [
        "Ėĕ",
        "ĖĖĖĖĖĖĖĖ"
      ],
      [
        "ė",
        "Ĉ"
      ],
      [
        "ĖĖĖĖ",
        "ĖĖĕ"
      ],
      [
        "Ė",
        "ā"
      ],
      [
        "Ėĕ",
        "ĖĖĖ"
      ],
      [
        "ė",
        "đ"
      ],
      [
        "Ėė",
        "ĖĖĖ"
      ],
      [
        "Ė",
        "Đ"
      ],
      [
        "Ėėĕ",
        "ĖĖ"
      ],
      [
        "ė",
        "Đ"
      ],
      [
        "Ę",
        "Ĕ"
      ],
      [
        "Ę",
        "ā"
      ],
      [
        "ė",
        "Ď"
      ],
      [
        "ė",
        "ď"
      ],
      [
        "Ė",
        "Ĝ"
      ],
      [
        "ė",
        "ėĖĕ"
      ],
      [
        "Ę",
        "ĖĔ"
      ],
      [
        "ėĕ",
        "Ėĕ"
      ],
      [
        "Ėė",
        "ĖĖė"
      ],
      [
        "Ę",
        "ĖĖ"
      ],
      [
        "ĖĖĖĖ",
        "ĖĖė"
      ],
      [
        "ė",
        "Ě"
      ],
      [
        "Ĕ",
        "ĖĖ"
      ],
      [
        "Ėĕ",
        "Ėĕ"
      ],
      [
        "ė",
        "Ėē"
      ],
      [
        "ėĕ",
        "ĖĖĖĖĖĖĖĖ"
      ],
      [
        "Ėĕĕ",
        "Ėė"
      ],
      [
        "Ė",
        "ď"
      ],
      [
        "Ę",
        "ē"
      ],
      [
        "ė",
        "ĖĖĖĖĖė"
      ],
      [
        "ĖĖĕ",
        "ĖĖė"
      ],
      [
        "ę",
        "ĕ"
      ],
      [
        "ĖĖĕ",
        "ĖĖĖĖĖ"
      ],
      [
        "Ėĕ",
        "ĖĖĖĖĖĕ"
      ],
      [
        "Ėĕĕ",
        "ĖĖ"
      ],
      [
        "ė",
        "ėĕ"
      ],
      [
        "ė",
        "ĖĖĖĖĖ"
      ],
      [
        "ĖĖĕ",
        "ĕ"
      ],
      [
        "ĖĖė",
        "ĖĖĖĖĖ"
      ],
      [
        "Ėĕ",
        "ĖĖĕĖĖĕ"
      ],
      [
        "ĖĖĖė",
        "ĖĖ"
      ],
      [
        "ē",
        "ĕ"
      ],
      [
        "ĖĖĖĖĖĕ",
        "ĖĖ"
      ],
      [
        "ĖĖĖĕ",
        "ĖĖ"
      ],
      [
        "ė",
        "ĖĖĘ"
      ],
      [
        "Ėėĕ",
        "Ėĕ"
      ],
      [
        "Ėĕĕ",
        "Ėĕ"
      ],
      [
        "Ė",
        "Ď"
      ],
      [
        "Ė",
        "ĝ"
      ],
      [
        "Ę",
        "Ę"
      ],
      [
        "Ė",
        "Ă"
      ],
      [
        "ĖĖė",
        "ĕ"
      ],
      [
        "ė",
        "ě"
      ],
      [
        "ę",
        "Ėĕ"
      ],
      [
        "ė",
        "ĖĖĖĖĕ"
      ],
      [
        "Ĕ",
        "ĖĔ"
      ],
      [
        "Ā",
        "ĖĖĖĖĖĖĖĖĖĖĖĖ"
      ],
      [
        "ĖĖĖĖ",
        "ĕĕ"
      ],
      [
        "ĖĖĕ",
        "ĖĖĖ"
      ],
      [
        "Ė",
        "ă"
      ],
      [
        "ē",
        "Ėė"
      ],
      [
        "ė",
        "Ėę"
      ],
      [
        "ĖĖĖĖĖė",
        "ĖĖ"
      ],
      [
        "Ę",
        "ĖĖė"
      ],
      [
        "Ę",
        "Ă"
      ],
      [
        "ėĀ",
        "ėĕ"
      ],
      [
        "Ę",
        "Ē"
      ],
      [
        "ė",
        "ĖĖĖ"
      ],
      [
        "ĖĖ",
        "Ē"
      ],
      [
        "ĖĖĔ",
        "Ėė"
      ],
      [
        ",",
        "ĖĖĖĖĖĖĖĖĖĖĖĖ"
      ],
      [
        "Ė",
        "Ą"
      ],
      [
        "Ėĕ",
        "ėĖĕ"
      ],
      [
        "Ę",
        "ĖĘ"
      ],
      [
        "Ę",
        "ę"
      ],
      [
        "ė",
        "Ĝ"
      ],
      [
        "ĕ",
        "ē"
      ],
      [
        "Ĕ",
        "ĖĖĕ"
      ],
      [
        "ė",
        "ĖĖĖĖĖĕ"
      ],
      [
        "ĖĖė",
        "ĖĖĖ"
      ],
      [
        "Ė",
        "Ğ"
      ],
      [
        "ĖĖĕĖĖĕ",
        "ĖĖ"
      ],
      [
        "ėė",
        "Ėė"
      ],
      [
        "ėĀ",
        "Ėĕ"
      ],
      [
        "Ę",
        "ă"
      ],
      [
        "Ę",
        "đ"
      ],
      [
        "Ė",
        "ą"
      ],
      [
        "ĕĕ",
        "ĕ"
      ],
      [
        "ėĕ",
        "ĖĖĕĖĖĕ"
      ],
      [
        "ė",
        "ĖĖĖĖė"
      ],
      [
        "ĖĖ",
        "Ě"
      ],
      [
        "ĖĖĖė",
        "Ėĕ"
      ],
      [
        "Ė",
        "Ĉ"
      ],
      [
        "Ę",
        "Ě"
      ],
      [
        "Ė",
        "Ć"
      ],
      [
        "Ĕ",
        "Ĕ"
      ],
      [
        "Ė",
        "ć"
      ],
      [
        "Ę",
        "Ą"
      ],
      [
        "Ę",
        "Đ"
      ],
      [
        "ė",
        "ĝ"
      ],
      [
        "ĖĖė",
        "ĖĖĕ"
      ],
      [
        "ĖĖĖĕ",
        "Ėė"
      ],
      [
        "ėĕ",
        "ĖĖĖĖĖĕ"
      ],
      [
        "ę",
        "Ėė"
      ],
      [
        "Ę",
        "ď"
      ],
      [
        "Ę",
        "Ď"
      ],
      [
        "ĕ",
        "Ėę"
      ],
      [
        "ĖĖĔ",
        "ĖĖ"
      ],
      [
        "Ėė",
        "Ėĕ"
      ],
      [
        "Ę",
        "ą"
      ],
      [
        "Ę",
        "ĖĖĕ"
      ],
      [
        "ĖĔ",
        "ĖĖĕ"
      ],
      [
        "ĖĖĖė",
        "Ėė"
      ],
      [
        "Ė",
        "ğ"
      ],
      [
        "Ę",
        "ĖĖĘ"
      ],
      [
        "ĖĔ",
        "ĕ"
      ],
      [
        "Ėĕ",
        "Ĕ"
      ],
      [
        "ė",
        "Ğ"
      ],
      [
        "Ę",
        "ě"
      ],
      [
        "Ę",
        "Ć"
      ],
      [
        "ĖĕĖĖĕ",
        "ĖĖĖĖĖĖĖĖ"
      ],
      [
        "ĖĖĖĖė",
        "ĖĖĖ"
      ],
      [
        "Ę",
        "Ĉ"
      ],
      [
        "ĕ",
        "ĖĖė"
      ],
      [
        "Ę",
        "ć"
      ],
      [
        "ĖĖĖĖĕ",
        "ĖĖĖ"
      ],
      [
        "Ėė",
        "ĖĖĕ"
      ],
      [
        "ē",
        "ĖĘ"
      ],
      [
        "ėĖĖė",
        "ĖĖ"
      ],
      [
        "Ę",
        "ĕĕ"
      ],
      [
        "ėā",
        "ĖĖĖĖĖĖĖĖĖĖĖĖĖ"
      ],
      [
        "ĖĖĖĖ",
        "Ĕ"
      ],
      [
        "ė",
        "ğ"
      ],
      [
        "ėĀ",
        "ĖĕĖĖĖĖĖĖĖĖĖĖĖ"
      ],
      [
        "Ĕ",
        "Ėę"
      ],
      [
        "ĖĖĖĖĖĖĖĖ",
        "ĕ"
      ],
      [
        "Ėĕ",
        "ĖĖĖĖĕ"
      ],
      [
        "ė",
        "Ėėĕ"
      ],
      [
        "ĖĖĖĖ",
        "ėĕ"
      ],
      [
        "Ėĕ",
        "ĖĖĖĖĖė"
      ],
      [
        "ĖĖė",
        "ĖĖėĖĖ"
      ],
      [
        "ĖĖĖ",
        "Ĕ"
      ],
      [
        "Ę",
        "Ĝ"
      ],
      [
        "ĕ",
        "Ėėĕ"
      ],
      [
        "ĕ",
        "Ėē"
      ],
      [
        "ĕ",
        "Ā"
      ],
      [
        "ę",
        "Ā"
      ],
      [
        "ė",
        "ĖĒ"
      ],
      [
        "ĕ",
        "Ē"
      ],
      [
        "ĕ",
        "ę"
      ],
      [
        "Ėė",
        "Ėė"
      ],
      [
        "ē",
        "Ėĕ"
      ],
      [
        "ĖĖĘ",
        "Ėĕ"
      ],
      [
        "Ę",
        "Ėē"
      ],
      [
        "Ę",
        "ĝ"
      ],
      [
        "ĕ",
        "Ėĕĕ"
      ],
      [
        "Ėė",
        "ĖĖ"
      ],
      [
        "ė",
        "ĖĖĔ"
      ],
      [
        "ėĕĖĖĕ",
        "ĖĖĖĖĖĖĖĖ"
      ],
      [
        "ĖĖĖĖ",
        "ėė"
      ],
      [
        "ĖĖĖĕ",
        "Ėĕ"
      ],
      [
        "ėĖĖĖĖĖĖĖĖ",
        "ĖĖ"
      ],
      [
        "ĖĖĖĖĖĖĖė",
        "ĖĖĖ"
      ],
      [
        "ėĖĖė",
        "Ėĕ"
      ],
      [
        "ĕ",
        "Ę"
      ],
      [
        "ĕĕ",
        "Ėė"
      ],
      [
        "ĖĖĖĖ",
        "ėĖĕ"
      ],
      [
        "ėĀ",
        "ėĖĖĖĖĖĖĖĖĖĖĖĖ"
      ],
      [
        "ĕ",
        "Ě"
      ],
      [
        "Ėĕ",
        "Ėĕĕ"
      ],
      [
        "ĖĖĖĖ",
        "Ę"
      ],
      [
        "Ė",
        "!"
      ],
      [
        "ĖĖĖĖĖĖĖĕ",
        "ĖĖĖ"
      ],
      [
        "Ėĕ",
        "ĖĖ"
      ],
      [
        "ėė",
        "ĖĖė"
      ],
      [
        "ĖĔ",
        "Ėė"
      ],
      [
        "Ę",
        "Ğ"
      ],
      [
        "Ėĕ",
        "Ėėĕ"
      ],
      [
        "ėĕ",
        "Ėĕĕ"
      ],
      [
        "Ę",
        "ĕĖė"
      ],
      [
        "ę",
        "ĖĔ"
      ],
      [
        "Ĕ",
        "Ėėĕ"
      ],
      [
        "ėĕ",
        "ĖĖĖĖĖė"
      ],
      [
        "ĖĖĘ",
        "ĖĖ"
      ],
      [
        "ėĕ",
        "ĖĖĖĖė"
      ],
      [
        "ėĕ",
        "Ėėĕ"
      ],
      [
        "ĖĖĔ",
        "Ėĕ"
      ],
      [
        "ė",
        "!"
      ],
      [
        "ĕ",
        "ĖĖĖĖĖĖĖĖ"
      ],
      [
        "Ę",
        "ėĖĕ"
      ],
      [
        "ĖĖĖĖ",
        "ĖĖėĖĖ"
      ],
      [
        "ėĀ",
        "ĖĖĖĖĖĖĖĖ"
      ],
      [
        "ĖĖĖĖĖĕ",
        "ĖĖĖ"
      ],
      [
        "ėĖĖė",
        "Ėė"
      ],
      [
        "ĖĖĖĖĖė",
        "ĖĖĖ"
      ],
      [
        "ė",
        "ĖĚ"
      ],
      [
        "Ę",
        "ğ"
      ],
      [
        "ĖĖĖĕ",
        "ĖĖĖĖĖ"
      ],
      [
        "ė",
        "\""
      ],
      [
        "ė",
        "ĘĖĕ"
      ],
      [
        "ĖĖĖĖ",
        "ĖĖĕĖĖ"
      ],
      [
        "ėĕ",
        "ĖĖĖĖĕ"
      ],
      [
        "ĕ",
        "Ė"
      ],
      [
        "ĕ",
        "ě"
      ],
      [
        "ėĖĕ",
        "ĖĖĖ"
      ],
      [
        "ėĕ",
        "ĖĖė"
      ],
      [
        "ĖĖĖĖĖĖĖĖ",
        "ė"
      ],
      [
        "Ĕ",
        "ē"
      ],
      [
        "ĖĖĘ",
        "Ėė"
      ],
      [
        "Ę",
        "ĖĖĖĖĖĖĖĖĖĖĖĖ"
      ],
      [
        "ĕ",
        "đ"
      ],
      [
        "Ė",
        "\""
      ],
      [
        "ĖĖĖĖė",
        "ĖĖė"
      ],
      [
        "ėĖĕ",
        "ĖĖĕ"
      ],
      [
        "ėĔ",
        "Ėė"
      ],
      [
        "ĖĖ",
        "đ"
      ],
      [
        "ĖĖĕĖĖĕ",
        "ĖĖĖĖĖ"
      ],
      [
        "ėĔ",
        "ĖĖĕ"
      ],
      [
        "ĖĖĖĖĖ",
        "Ĕ"
      ],
      [
        "Ė",
        ","
      ],
      [
        "ė",
        ","
      ],
      [
        "Ĕ",
        "Ėē"
      ],
      [
        "ĖĖĖ",
        "Ę"
      ],
      [
        "ė",
        "#"
      ],
      [
        "ėĖĕ",
        "ĕ"
      ],
      [
        "ĖĖĔ",
        "ĖĖĕ"
      ],
      [
        "ĕĕ",
        "ĖĖĕ"
      ],
      [
        "ĖĖĖė",
        "ĖĖĖĖĖ"
      ],
      [
        "Ę",
        "!"
      ],
      [
        "ė",
        "$"
      ],
      [
        "ę",
        "Ĕ"
      ],
      [
        "Ę",
        "Ėę"
      ],
      [
        "ĕ",
        "Ĝ"
      ],
      [
        "ėĖĕ",
        "ėĖĕ"
      ],
      [
        "ĖĖ",
        "ě"
      ],
      [
        "Ę",
        "ĖĖĖĖĖĖĖĖ"
      ],
      [
        "ėĀ",
        "ėĖĖĖĖĖĖĖĖ"
      ],
      [
        "Ėĕ",
        "ĖĖĖĖė"
      ],
      [
        "Ė",
        "#"
      ],
      [
        "ę",
        "Ě"
      ],
      [
        "Ĕ",
        "ĖĖĔ"
      ],
      [
        "ėĖė",
        "ĖĖĖ"
      ],
      [
        "ĖĖĖĖĕ",
        "ĖĖĕ"
      ],
      [
        "ĕ",
        "Đ"
      ],
      [
        "ę",
        "Ē"
      ],
      [
        "Ę",
        "ėė"
      ],
      [
        "Ĕ",
        "Ėĕĕ"
      ],
      [
        "ėā",
        "ĖĕĖĖĖĖĖĖĖĖĖĖĖ"
      ],
      [
        "ĖĖė",
        "ĖĖĖĖĖĖĖĖĖĖ"
      ],
      [
        "ėĂ",
        "ĖĖĖĖĖĖĖĖĖĖĖĖĖ"
      ],
      [
        "ėĀ",
        "ėĕĖĖĖĖĖĖĖĖĖĖĖ"
      ],
      [
        "ę",
        "ĖĘ"
      ],
      [
        "ėĖĕ",
        "ĖĖė"
      ],
      [
        "ĖĕĖĖĖĖĖĕ",
        "ĖĖĖĖĖ"
      ],
      [
        "ĖĖĖĕ",
        "ĕ"
      ],
      [
        "Ę",
        "\""
      ],
      [
        "ėĖė",
        "ĖĖė"
      ],
      [
        "ĕĕ",
        "ĖĖĖĖĖĖĖĖĖĖĖ"
      ],
      [
        "ėĕ",
        "ėĖĕ"
      ],
      [
        "ē",
        "ĖĔ"
      ],
      [
        "ĖĘ",
        "ĕ"
      ],
      [
        "ė",
        "Ęĕ"
      ],
      [
        "Ę",
        ","
      ],
      [
        "ĕ",
        "ĖĖĖĖĖĖĖĖĖĖĖĖ"
      ],
      [
        "ėĖĕ",
        "ĖĖĖĖĖĖĖĖĖĖ"
      ],
      [
        "Ė",
        "$"
      ],
      [
        "ē",
        "Ĕ"
      ],
      [
        "ĖĔ",
        "ĖĖĔ"
      ],
      [
        "Ę",
        "ėĕ"
      ],
      [
        "ę",
        "ĖĖ"
      ],
      [
        "ĕ",
        "ĝ"
      ],
      [
        "ĖĖĖĖĖė",
        "Ėĕ"
      ],
      [
        "ĖĖĖĕ",
        "ĖĖĕ"
      ],
      [
        "ę",
        "ę"
      ],
      [
        "ē",
        "ĖĖ"
      ],
      [
        "ėĕ",
        "ĖĖĕĖė"
      ],
      [
        "ėĖė",
        "ĖĖĕ"
      ],
      [
        "ĕ",
        "ā"
      ],
      [
        "Ē",
        "Ėė"
      ],
      [
        "ĕ",
        "ĖĚ"
      ],
      [
        "Ę",
        "$"
      ],
      [
        "ĖĕĖĖĕĖĖĕ",
        "ĖĖĖĖĖ"
      ],
      [
        "ĖĖĖĖĖĖĖĖ",
        "ĖĖėĖĖ"
      ],
      [
        "ė",
        "%"
      ],
      [
        "ė",
        "ĖĖĕĖĖĕ"
      ],
      [
        "ē",
        "Ėę"
      ],
      [
        "ĖĖĕ",
        "ĖĖĖĖĖĖĖĖĖĖ"
      ],
      [
        "ę",
        "ā"
      ],
      [
        "Ę",
        "#"
      ],
      [
        "ĕĕ",
        "Ėĕ"
      ],
      [
        "Ėėĕ",
        "ĖĖĖĖĖ"
      ],
      [
        "ĖĖĖĖĖĖĖė",
        "ĖĖĖĖĖ"
      ],
      [
        "ĕ",
        "ď"
      ],
      [
        "ę",
        "ě"
      ],
      [
        "Ėėĕ",
        "ĖĘ"
      ],
      [
        "ėĖĖĖĖĖĖĖĖ",
        "ĖėĖĖ"
      ],
      [
        "ėĕ",
        "ĕĖĕ"
      ],
      [
        "ĖĖĕ",
        "ĖĖĖĖĖĖĖĖĖ"
      ],
      [
        "ĕ",
        "ĖĖĖĖĖĖĖĖĖĖĖ"
      ],
      [
        "ėā",
        "ėĖĖĖĖĖĖĖĖĖĖĖĖ"
      ],
      [
        "ĕ",
        ","
      ],
      [
        "ėĖ",
        "đ"
      ],
      [
        "ĖĖĖĖĖĕ",
        "Ėė"
      ],
      [
        "Ě",
        "Ėĕ"
      ],
      [
        "ĖĕĖĖĖĖĖĖĖĖ",
        "ĕĖĖ"
      ],
      [
        "ĕ",
        "ĖĒ"
      ],
      [
        "ę",
        "đ"
      ],
      [
        "ĖĖĕĖė",
        "ĖĖĖ"
      ],
      [
        "ĕ",
        "Ğ"
      ],
      [
        "ĖĖėĖĕ",
        "ĖĖĖ"
      ],
      [
        "Ė",
        "%"
      ],
      [
        "ĕ",
        "ĖĖĖ"
      ],
      [
        "ė",
        "&"
      ],
      [
        "ĖĖĖĖĖĕ",
        "ĖĖĖĖĖ"
      ],
      [
        "ĕ",
        "Ď"
      ],
      [
        "Ėĕ",
        "ĖĖĔ"
      ],
      [
        "ĖĖė",
        "ĖĖĖĖĖĖ"
      ],
      [
        "ėĖĖĖĖ",
        "ĖĖėĖĖĖĖĖ"
      ],
      [
        "ĖĕĖĖĖĖĖĖĖĖ",
        "ĖĖĕ"
      ],
      [
        "ėĖė",
        "ėĖė"
      ],
      [
        "ĖĖĖĖė",
        "ĖĖĕ"
      ],
      [
        "ę",
        "ē"
      ],
      [
        "ėĖė",
        "ĖĖĖĖĖĖĖĖĖĖ"
      ],
      [
        "ĖĖĖĖĖĖĖĕ",
        "ĖĖĖĖĖ"
      ],
      [
        "Ėĕĕ",
        "ĖĖĖĖĖ"
      ],
      [
        "ĖĖĖĖĖĖĖĖ",
        "ĖĖĕĖĖ"
      ],
      [
        "Ĕ",
        "Ē"
      ],
      [
        "ėĀ",
        "ĖĖĖĕ"
      ],
      [
        "ėĖĖĖĖ",
        "ĖĖė"
      ],
      [
        "ĕ",
        "ėė"
      ],
      [
        "ĖĕĖĖĖĖĖĖĖĖ",
        "ėĖĖ"
      ],
      [
        "ę",
        "Ĝ"
      ],
      [
        "Ĕ",
        "ĖĖė"
      ],
      [
        "ėĕ",
        "ĖĘ"
      ],
      [
        "Ĕ",
        "ĕĕ"
      ],
      [
        "ėĖĖĖĖĖĖĖĖ",
        "ĖĖĖ"
      ],
      [
        "ĕ",
        "ğ"
      ],
      [
        "ėĖĖĖĖĖĖĖĖ",
        "ĖĕĖĖ"
      ],
      [
        "ĖĖĖĖĕ",
        "ĖĖė"
      ],
      [
        "ĖĔ",
        "ĖĖė"
      ],
      [
        "ĖĖĖĖĖ",
        "Ę"
      ],
      [
        "ėĖĖĖĖ",
        "ĖĖĕ"
      ],
      [
        "ę",
        "Đ"
      ],
      [
        "ėĀ",
        "ĖĖĖė"
      ],
      [
        "ėĀ",
        "ėĖĖĕ"
      ],
      [
        "ĖĖĖĖĖĖĖĖ",
        "ĖĖĖĖĕ"
      ],
      [
        "Ėĕĕ",
        "ĖĘ"
      ],
      [
        "ę",
        "Ă"
      ],
      [
        "ėĖė",
        "ėĖĕ"
      ],
      [
        "ė",
        "'"
      ],
      [
        "Ĕ",
        "ĖĚ"
      ],
      [
        "ę",
        "ă"
      ],
      [
        "Ę",
        "%"
      ],
      [
        "ĖĕĖĖĕ",
        "Ėė"
      ],
      [
        "ėĕ",
        "ĕĕ"
      ],
      [
        "ėă",
        "ĖĖĖĖĖĖĖĖĖĖĖĖĖ"
      ],
      [
        "ėĖĖĖĖ",
        "ĖĖĕĖĖĖĖĖ"
      ],
      [
        "Ę",
        "ĖĖĖė"
      ],
      [
        "Ę",
        ")"
      ],
      [
        "ė",
        ")"
      ],
      [
        "Ę",
        "ĖĒ"
      ],
      [
        "ĖĖĕĖĖĕ",
        "Ėė"
      ],
      [
        "ėĕĖĖĖĖĖĖĖĖ",
        "ĕĖĖ"
      ],
      [
        "ėĕĖĖĖĖĖĕ",
        "ĖĖĖĖĖ"
      ],
      [
        "ĖĖė",
        "ĖĖĖĖĖĖĖĖĖ"
      ],
      [
        "ėĖ",
        "ě"
      ],
      [
        "ėĕ",
        "ĖĖĔ"
      ],
      [
        "Ė",
        "&"
      ],
      [
        "ĖĖĘ",
        "ĖĖė"
      ],
      [
        "ę",
        "ď"
      ],
      [
        "ė",
        "("
      ],
      [
        "ĕ",
        "ĖĖĔ"
      ],
      [
        "ĖĔ",
        "Ėĕ"
      ],
      [
        "ĕĖė",
        "ĖĖĕ"
      ],
      [
        "Ě",
        "Ėė"
      ],
      [
        "ę",
        "Ėē"
      ],
      [
        "ę",
        "ĝ"
      ],
      [
        "ę",
        "Ą"
      ],
      [
        "ėĕĖĖĕĖĖĕ",
        "ĖĖĖĖĖ"
      ],
      [
        "ĖĔ",
        "Ėėĕ"
      ],
      [
        "ėĖĖė",
        "ĖĖĖĖĖ"
      ],
      [
        "ĖĖĖĖ",
        "ėĖĖĖĖĖĖĖĖ"
      ],
      [
        "ėĕ",
        "Ĕ"
      ],
      [
        "ĕ",
        "ĖĖĖĖ"
      ],
      [
        "ę",
        "Ď"
      ],
      [
        "ĖĕĖĖĖĖĖĖĖĖ",
        "ĖĖė"
      ],
      [
        "ĖĖĖĖĖė",
        "Ėė"
      ],
      [
        "Ę",
        "&"
      ],
      [
        "ėĖĖĖĖĖĖĖĖ",
        "ĖĖĖė"
      ],
      [
        "ėĔ",
        "Ėĕ"
      ],
      [
        "ėĀ",
        "ėĖĖė"
      ],
      [
        "ėĖĕ",
        "ėĖĖ"
      ],
      [
        "ĕ",
        "ă"
      ],
      [
        "ĕ",
        "!"
      ],
      [
        "ĕ",
        "Ă"
      ],
      [
        "Ė",
        "'"
      ],
      [
        "ĖĖĖĖĖĖĕ",
        "ĖĖĖĖĖĖ"
      ],
      [
        "ĖĖĖĖĖĖĖĖ",
        "ĖĖĖĖė"
      ],
      [
        "ėĕĖĖĖĖĖĖĖĖ",
        "ėĖĖ"
      ],
      [
        "Ęĕ",
        "ĖĖĕ"
      ],
      [
        "Ėĕĕ",
        "ĖĔ"
      ],
      [
        "ĕ",
        "Ą"
      ],
      [
        "ē",
        "ĖĖĕ"
      ],
      [
        "ę",
        "Ğ"
      ],
      [
        "ėĔ",
        "ĕ"
      ],
      [
        "Ę",
        "ĖĖĖĕ"
      ],
      [
        "ĖĖĖĖĖĖĖĖ",
        "Ėė"
      ],
      [
        "Ē",
        "ĕ"
      ],
      [
        "ĖĘ",
        "Ėĕ"
      ],
      [
        "ėĕ",
        "ėė"
      ],
      [
        "ėĖė",
        "ėĖĖ"
      ],
      [
        "ėĕĖĖĖĖĖĖĖĖ",
        "ĖĖė"
      ],
      [
        "ėā",
        "Ėĕ"
      ],
      [
        "ėĖė",
        "Ėė"
      ],
      [
        "Ě",
        "ĕ"
      ],
      [
        "ėā",
        "ėĕĖĖĖĖĖĖĖĖĖĖĖ"
      ],
      [
        "ėĖĖĖĖĖĖĖĖ",
        "ĖĖĖĕ"
      ],
      [
        "ĖĖĖĕ",
        "ĖĖĕĖĖ"
      ],
      [
        "ĖĖĕĖĖĕ",
        "ĖĖĕĖĖ"
      ],
      [
        "Ē",
        "Ėĕ"
      ],
      [
        "Ęĕ",
        "Ėĕ"
      ],
      [
        "Ę",
        "("
      ],
      [
        "ėĖĖĖė",
        "ĖĖĖĖĖĖĖĖ"
      ],
      [
        "ĖĘ",
        "ĖĖė"
      ],
      [
        "ĕ",
        "\""
      ],
      [
        "ĕ",
        "Ĉ"
      ],
      [
        "ĕ",
        "ĖĖĖĖĖ"
      ],
      [
        "ę",
        "ĕĕ"
      ],
      [
        "ĖĖĖĖĖĕ",
        "Ėĕ"
      ],
      [
        "ĖĖĖĖ",
        "ĖĖĖ"
      ],
      [
        "ėĖĖĖė",
        "Ėė"
      ],
      [
        "ę",
        "ą"
      ],
      [
        "ę",
        "ğ"
      ],
      [
        "ĖĖĖĖĖĖĖĖ",
        "Ėĕ"
      ],
      [
        "Ĕ",
        ","
      ],
      [
        "ĕ",
        "ć"
      ],
      [
        "Ē",
        "ĖĘ"
      ],
      [
        "ĖĖĕĖĕ",
        "ĖĖĖ"
      ],
      [
        "ė",
        "ĖĖĕĖĖ"
      ],
      [
        "Ĕ",
        "Ě"
      ],
      [
        "Ę",
        "'"
      ],
      [
        "ĕ",
        "ĖĖĖė"
      ],
      [
        "ę",
        ","
      ],
      [
        "ę",
        "ĖĖė"
      ],
      [
        "ĖĖĖė",
        "ĖĖėĖĖ"
      ],
      [
        "ĕ",
        "ą"
      ],
      [
        "ĖĖ",
        "Đ"
      ],
      [
        "ĖĖĔ",
        "ĖĖė"
      ],
      [
        "ĕ",
        "Ć"
      ],
      [
        "ē",
        "ē"
      ],
      [
        "Ė",
        "("
      ],
      [
        "ę",
        "Ĉ"
      ],
      [
        "ėĖĕ",
        "Ėė"
      ],
      [
        "ĖĖĘ",
        "ĖĖĕ"
      ],
      [
        "ėĔ",
        "Ėėĕ"
      ],
      [
        "Ęĕ",
        "ĖĖĖĖĖĖĖĖĖĖĖ"
      ],
      [
        "ĕĖė",
        "ĖĖė"
      ],
      [
        "ėĕĖĖĖĖĖĖĖĖ",
        "ĖĖĕ"
      ],
      [
        "Ĕ",
        "ėė"
      ],
      [
        "ĖĖē",
        "Ėė"
      ],
      [
        "Ę",
        "ėĖė"
      ],
      [
        "Ėĕĕ",
        "ĖĖĖĖĖĖĖĖĖĖ"
      ],
      [
        "ėĄ",
        "ĖĖĖĖĖĖĖĖĖĖĖĖĖ"
      ],
      [
        "Ĕ",
        "ě"
      ],
      [
        "ėĀ",
        "ĖĕĖė"
      ],
      [
        "ĖĔ",
        "ĕĖĕ"
      ],
      [
        "ĕĖė",
        "ĖĖĖĖĖĖĖĖĖ"
      ],
      [
        "ę",
        "ć"
      ],
      [
        "ĖĘ",
        "ĖĖĕ"
      ],
      [
        "ĖĖĖĖĖė",
        "ĖĖĖĖĖ"
      ],
      [
        "Ĕ",
        "đ"
      ],
      [
        "ĖĖĖĖĖĖĖė",
        "ĖĖ"
      ],
      [
        "ę",
        "Ć"
      ],
      [
        "ĖĖĖĖĖĖĖĖ",
        "ėĖĖ"
      ],
      [
        "ĖĖĕĖĖĕ",
        "Ėĕ"
      ],
      [
        "ĖĖėĖė",
        "ĖĖĖ"
      ],
      [
        "ĖĔ",
        "ėĖĕ"
      ],
      [
        "Ėĕ",
        "ĖĖĖĖĖĖ"
      ],
      [
        "ĖĖĖĖĖĖĖĖ",
        "ĖėĖĖĖ"
      ],
      [
        "Ę",
        "ĖĚ"
      ],
      [
        "Ėĕ",
        "ĕĕ"
      ],
      [
        "ĕĖė",
        "ĖĖĖ"
      ],
      [
        "ĖĖĖĖĖĖĖĖ",
        "ĕĖĖ"
      ],
      [
        "Ėĕ",
        "ėĖĖĖĖĖĖĖĖĖĖ"
      ],
      [
        "ĕ",
        "#"
      ],
      [
        "Ĕ",
        "ĖĒ"
      ],
      [
        "ĖĖĖĖĖĖĖĖ",
        "ĖĕĖĖĖ"
      ],
      [
        "ĖĖ",
        "Ĝ"
      ],
      [
        "ĕ",
        "ė"
      ],
      [
        "ėĔ",
        "ĖĖĔ"
      ],
      [
        "Ėėĕ",
        "ĖĖĕĖĖ"
      ],
      [
        "ėĀ",
        "ĖĕĖĖĕ"
      ],
      [
        "ĕ",
        "ėĖĕ"
      ],
      [
        "ĖĖĖĖĕ",
        "ĖĖĖĖĖĖĖĖ"
      ],
      [
        "ėĖĖė",
        "ĖĖė"
      ],
      [
        "ėĖĖĖĕ",
        "ĖĖĖĖĖĖĖĖ"
      ],
      [
        "ĖĖĖĖĕĕ",
        "ĖĖ"
      ],
      [
        "ėĖĖĕ",
        "Ėė"
      ],
      [
        "ĖĖĖĖ",
        "ėĖė"
      ],
      [
        "ĖĖĖĖĖĖĖĕ",
        "ĖĖ"
      ],
      [
        "Ėĕĕ",
        "ĖĖĖĖĕ"
      ],
      [
        "ėĕ",
        "ĖĔ"
      ],
      [
        "Ė",
        ")"
      ],
      [
        "ĕ",
        "$"
      ],
      [
        "Ę",
        "ĖĖę"
      ],
      [
        "Ėĕ",
        "ėė"
      ],
      [
        "ĕ",
        "Ėě"
      ],
      [
        "ėĖ",
        "Đ"
      ],
      [
        "ĖĖėĖĕ",
        "ėĖĖ"
      ],
      [
        "Ĕ",
        "ę"
      ],
      [
        "ē",
        "Ėē"
      ],
      [
        "Ě",
        "ĖĔ"
      ],
      [
        "ĖĖĖĖĖė",
        "ĖĖĕ"
      ],
      [
        "ĖĖĖė",
        "ĖĖĕ"
      ],
      [
        "ĖĖĖĖėĕ",
        "ĖĖ"
      ],
      [
        "Ę",
        "ĖĖĔ"
      ],
      [
        "Ėėĕ",
        "ĖĔ"
      ],
      [
        "ėĖĖĖĖĖĖĖĖ",
        "ėĖĖĖ"
      ],
      [
        "Ėĕ",
        "ĖĘ"
      ],
      [
        ",",
        "Ď"
      ],
      [
        "Ā",
        "Đ"
      ],
      [
        "Ėĕĕ",
        "ĖĖĕĖĖ"
      ],
      [
        "ėĕĕ",
        "ĖĖĖĖĖĖĖĖĖĖ"
      ],
      [
        "ĖĖĔ",
        "ĖĖĕĖĖ"
      ],
      [
        "ĖĖĖĖĖĕ",
        "ĖĖĕ"
      ],
      [
        "ę",
        "!"
      ],
      [
        "ĖĖĖė",
        "ĖĖė"
      ],
      [
        "ėĖĖĖĖĖĖĖĖ",
        "ĕĖĖĖ"
      ],
      [
        "Ę",
        "ĘĖĕ"
      ],
      [
        "ėĕ",
        "ĖĕĖĖė"
      ],
      [
        "Ėĕĕ",
        "ĖĖĕ"
      ],
      [
        "ėĕ",
        "ėĖĖĖĖĖĖĖĖĖĖ"
      ],
      [
        "ĖĖĖĕ",
        "ĖĖė"
      ],
      [
        "Ę",
        "Ė"
      ],
      [
        "ĖĖĖė",
        "ĕ"
      ],
      [
        "ėą",
        "ĖĖĖĖĖĖĖĖĖĖĖĖĖ"
      ],
      [
        "ĖĕĖĖĕĖĖĕ",
        "ĖĖĕĖĖ"
      ],
      [
        "Ę",
        "ĖĖĖĖ"
      ],
      [
        "Ĕ",
        "Ā"
      ],
      [
        "ĖĖĖĖĖĕ",
        "ĖĖė"
      ],
      [
        "Ėė",
        "Ĕ"
      ],
      [
        "Ĕ",
        "Ĝ"
      ],
      [
        "ĖĖĖĖėė",
        "ĖĖ"
      ],
      [
        "ėĕ",
        "ĖĖĖĖĖĖĖė"
      ],
      [
        "ę",
        "ĖĖĕ"
      ],
      [
        "Ā",
        "đ"
      ],
      [
        "ėĕ",
        "ĖĖĖĖĖĖĖĕ"
      ],
      [
        "ėĖĖĖĖĖė",
        "ĖĖĖĖĖĖ"
      ],
      [
        "ėĘ",
        "Ėė"
      ],
      [
        "ĖĖĖĖĖė",
        "ĖĖė"
      ],
      [
        "ę",
        "\""
      ],
      [
        "ĕ",
        "%"
      ],
      [
        "ē",
        "ĖĖĔ"
      ],
      [
        "ę",
        "Ėę"
      ],
      [
        "ėė",
        "ĖĔ"
      ],
      [
        "ėĖĖĕ",
        "ĕ"
      ],
      [
        "ĖĖĖĖė",
        "ĖĖĖĖĖ"
      ],
      [
        "ĖĖĘ",
        "ĖĖĘ"
      ],
      [
        "ėĂ",
        "ėĖĖĖĖĖĖĖĖĖĖĖĖ"
      ],
      [
        "ĖĖĖĖĕ",
        "ĖĖĖĖĖĖ"
      ],
      [
        "Ę",
        "ĔĖė"
      ],
      [
        "ĕĖĕ",
        "ĖĖė"
      ],
      [
        "Ĕ",
        "Đ"
      ],
      [
        "ėĖĖĕ",
        "ĖĖė"
      ],
      [
        "ėĂ",
        "ĖĕĖĖĖĖĖĖĖĖĖĖĖ"
      ],
      [
        "ĖĖĕ",
        "ĖĖĖĖĕ"
      ],
      [
        "ėĀ",
        "ėĕĖė"
      ],
      [
        "Ā",
        "ď"
      ],
      [
        "ĖĖĖĕ",
        "ĖĘ"
      ],
      [
        "ėė",
        "Ĕ"
      ],
      [
        "Ęĕ",
        "ĖĘ"
      ],
      [
        "ĕ",
        "Ėđ"
      ],
      [
        "ē",
        "ĖĚ"
      ],
      [
        "ėĀ",
        "ĕĕ"
      ],
      [
        "ē",
        "Ē"
      ],
      [
        "Ėĕ",
        "ĖĖĖĖĖĖĖė"
      ],
      [
        "Ėĕ",
        "ĖĖĖĖĖĖĖĕ"
      ],
      [
        "ĖĖĖĖ",
        "ĖĖėĖĕ"
      ],
      [
        "ę",
        "Ę"
      ],
      [
        "ėĖĕ",
        "ėĖė"
      ],
      [
        "Ę",
        "ėĖĖė"
      ],
      [
        "Ėĕ",
        "ėĖĖĖĖ"
      ],
      [
        "ĖĖĖė",
        "ĖĔ"
      ],
      [
        "ĖĖĖĖĕ",
        "ėĖĖ"
      ],
      [
        "ĖĖĕĖĖĕ",
        "ĖĖĖ"
      ],
      [
        "Ĕ",
        "ĝ"
      ],
      [
        "Ėĕ",
        "ėĖĖ"
      ],
      [
        "ĕ",
        "&"
      ],
      [
        "ė",
        "ėĕĖė"
      ],
      [
        "ėĖĖė",
        "ĖĖėĖĖ"
      ],
      [
        "ėė",
        "ĖĖĕ"
      ],
      [
        "Ā",
        "Ē"
      ],
      [
        "ĕ",
        "ĖĖĖĕ"
      ],
      [
        "ę",
        "#"
      ],
      [
        "Ę",
        "Ėĕĕ"
      ],
      [
        "ėĖ",
        "Ĝ"
      ],
      [
        "ĖĕĖĖĖĖĖĕ",
        "ĖĖĕĖĖ"
      ],
      [
        "ĖĖĖĖĖĖĖĖ",
        "ĖĖĕ"
      ],
      [
        "ĖĕĖĖĕ",
        "ĖĖĖ"
      ],
      [
        "ĖĖĔ",
        "ĖĘ"
      ],
      [
        "ĖėĕĖė",
        "ĖĖĖ"
      ],
      [
        "ė",
        "ėĕĕ"
      ],
      [
        "ėĀ",
        "ėĕĖĖĕ"
      ],
      [
        "Ĕ",
        "Ė"
      ],
      [
        "ĖĖė",
        "ĖĖĖĖĕ"
      ],
      [
        "Ę",
        "Ĕĕ"
      ],
      [
        "ĖĖĖĖĖĖĖė",
        "ĖĖėĖĖ"
      ],
      [
        "ėĖĖĖĖ",
        "ĖĖĖĕ"
      ],
      [
        "Ėĕ",
        "ē"
      ],
      [
        "ėĆ",
        "ĖĖĖĖĖĖĖĖĖĖĖĖĖ"
      ],
      [
        "Ě",
        "Ě"
      ],
      [
        "Ĕ",
        "Ğ"
      ],
      [
        "ĕ",
        "'"
      ],
      [
        "ĖĖĖĖ",
        "ĖĖĕĖė"
      ],
      [
        "Ĕ",
        "ĕĖĕ"
      ],
      [
        "ę",
        "$"
      ],
      [
        "ėĖĖĖĖ",
        "ĖĖĖė"
      ],
      [
        "ĖĖĖĕ",
        "ĖĖĖĖĖĖĖĖĖ"
      ],
      [
        "Ĕ",
        "ĕĖė"
      ],
      [
        "ĖĖĖĖĖĕ",
        "ĖĖĕĖĖ"
      ],
      [
        "ė",
        "*"
      ],
      [
        "Ę",
        "Ėđ"
      ],
      [
        "ėĕ",
        "ėĕ"
      ],
      [
        "Ėĕ",
        "ėĖė"
      ],
      [
        "ĖĖė",
        "ėĖĕ"
      ],
      [
        "Ę",
        "ė"
      ],
      [
        "ĖĕĖė",
        "ĖĖĕ"
      ],
      [
        "Ā",
        "Ď"
      ],
      [
        "Ĕ",
        "Ėě"
      ],
      [
        "ėĖĖĖĖĖĕ",
        "ĖĖĖĖĖĖ"
      ],
      [
        "ĕĖĕ",
        "ĖĖĖ"
      ],
      [
        "ĖĖĕĖė",
        "ĖĖĕ"
      ],
      [
        "ėĕ",
        "ĖĖĖĖĖĖĖėĖĖĖ"
      ],
      [
        "ē",
        ","
      ],
      [
        "ėĖĖĖĖ",
        "ĖĖėĖĖėĖĖ"
      ],
      [
        "ē",
        "ĕĕ"
      ],
      [
        "ĖĖĖĖė",
        "ĖĖĖĖĖĖ"
      ],
      [
        "ĖĖėĖĖė",
        "ĖĖĖĖĖ"
      ],
      [
        "ĕ",
        "ĔĖė"
      ],
      [
        "Ĕ",
        "ď"
      ],
      [
        "Ě",
        "ě"
      ],
      [
        "Ėĕ",
        "ĖĔ"
      ],
      [
        "ĖĖĔ",
        "ĖĖĔ"
      ],
      [
        "ĖĖĖĖĖĖė",
        "ĖĖĖĖĖĖ"
      ],
      [
        "Ėĕ",
        "ĖĖĖĖĖĖĖėĖĖĖ"
      ],
      [
        "Ę",
        "ĔĖĕ"
      ],
      [
        "ĖĕĖĖĖĖĖė",
        "ĖĖĖĖĖ"
      ],
      [
        "Ĕ",
        "ğ"
      ],
      [
        "Ě",
        "Ā"
      ],
      [
        "Ėē",
        "Ėė"
      ],
      [
        "Ę",
        "ĖĖėĖĖ"
      ],
      [
        "ėĖĕ",
        "ĖĖĖĖĖĖĖĖĖ"
      ],
      [
        "ĖĖĖĖĖĖĖĖ",
        "ĖĖė"
      ],
      [
        "Ē",
        "Ėę"
      ],
      [
        "ę",
        "ĖĖĘ"
      ],
      [
        "Ę",
        "ĖĖėĖĕ"
      ],
      [
        "Ē",
        "ĖĔ"
      ],
      [
        "ĖĖėĖė",
        "ėĖĖ"
      ],
      [
        "ėĖĖĕ",
        "ĖĖĖĖĖĖĖĖĖ"
      ],
      [
        "ĖĖĕĖė",
        "ĖĖė"
      ],
      [
        "ėė",
        "Ė"
      ],
      [
        "ėĕĖĖĕĖĖĕ",
        "ĖĖĕĖĖ"
      ],
      [
        "ėĕ",
        "ĖĖĖĖĖĖĖĕĖĖĖ"
      ],
      [
        "Ėĕ",
        "ĖĖĖĖĖĖĖĕĖĖĖ"
      ],
      [
        "ĖĖĖĖĖĖĕ",
        "ĖĖĖ"
      ],
      [
        "ėă",
        "ėĖĖĖĖĖĖĖĖĖĖĖĖ"
      ],
      [
        "ėĖĖĖĕ",
        "Ėė"
      ],
      [
        "ę",
        "ĕĖė"
      ],
      [
        "ėē",
        "Ėė"
      ],
      [
        "ėĕ",
        "ĖĖĖĖ"
      ],
      [
        "Ě",
        "đ"
      ],
      [
        "ĖĘ",
        "Ėė"
      ],
      [
        "Ė",
        "*"
      ],
      [
        "ĕ",
        "ĖĖĖĖĕ"
      ],
      [
        "ĕ",
        "("
      ],
      [
        "ĖĖĘ",
        "ĖĖĖ"
      ],
      [
        "ĖĖėĖĖė",
        "ĖĖĖ"
      ],
      [
        "Ę",
        "ĖĖĖĖĖ"
      ],
      [
        "ėĕ",
        "Ė"
      ],
      [
        "Ĕ",
        "ĖĖĕĖĖ"
      ],
      [
        "ėĕ",
        "ėĖĖĖĖ"
      ],
      [
        "ĖĕĖĖĖĖĕ",
        "ĖĖĖĖĖĖ"
      ],
      [
        "Ėėĕ",
        "ĖĖĕ"
      ],
      [
        "ĖĖĖĖĖĖė",
        "ĖĖĖ"
      ],
      [
        "Ě",
        "Ē"
      ],
      [
        "ĖĖę",
        "Ėĕ"
      ],
      [
        "ĕĕ",
        "ĕĕ"
      ],
      [
        "Ĕ",
        "ĖĖē"
      ],
      [
        "Ĕ",
        "Ę"
      ],
      [
        "ĖĖ",
        "ď"
      ],
      [
        "ĖĔ",
        "Ėĕĕ"
      ],
      [
        "ę",
        "%"
      ],
      [
        "ĖĖĔ",
        "ĖĖĖ"
      ],
      [
        "ĖĖ",
        "ĝ"
      ],
      [
        "ĕ",
        "ĖĖĘ"
      ],
      [
        "ĕ",
        "ĖĖĖĖĖĕ"
      ],
      [
        "Ėĕ",
        "ĖĖĖĖĕĕ"
      ],
      [
        "ę",
        "ĖĒ"
      ],
      [
        "ėć",
        "ĖĖĖĖĖĖĖĖĖĖĖĖĖ"
      ],
      [
        "ĕ",
        "ėĘ"
      ],
      [
        "Ĕ",
        "Ď"
      ],
      [
        "Ėė",
        "ĖĔ"
      ],
      [
        "ĖĕĖė",
        "ĖĖĖĖĖĖĖĖĖ"
      ],
      [
        "ėĕ",
        "ĖĖ"
      ],
      [
        "ėĖĖĖė",
        "ĖĖė"
      ],
      [
        "Ě",
        ","
      ],
      [
        "Ě",
        "Ą"
      ],
      [
        "ĖĖĖĖė",
        "ĖĖėĖĖĖĖĖ"
      ],
      [
        "ę",
        "ėĕ"
      ],
      [
        "ĖĘ",
        "ĖĖĖ"
      ],
      [
        "ėė",
        "ĖĖ"
      ],
      [
        "ĖĕĖĖĕ",
        "ĖĖĖĖĖ"
      ],
      [
        "Ě",
        "ă"
      ],
      [
        "ėĕĖĖĖĖĖė",
        "ĖĖĖĖĖ"
      ],
      [
        "ėė",
        "ĖĖĘ"
      ],
      [
        "ĖĔ",
        "ĖĖĕĖĖĕ"
      ],
      [
        "Ě",
        "ĖĘ"
      ],
      [
        "ėė",
        "ĖĘ"
      ],
      [
        "ĕĔ",
        "ĖĖĕ"
      ],
      [
        "ĖĔ",
        "ĖĖĖ"
      ],
      [
        "ėĖĖĖė",
        "Ėĕ"
      ],
      [
        "ĕ",
        ")"
      ],
      [
        "Ę",
        "ĖĖėĖė"
      ],
      [
        "Ě",
        "Ĝ"
      ],
      [
        "ē",
        "đ"
      ],
      [
        "ĖĖĖĕ",
        "ĖėĖĖĖ"
      ],
      [
        "ĖĖĖĖĕ",
        "Ėė"
      ],
      [
        ",",
        "ď"
      ],
      [
        "Ĕ",
        "!"
      ],
      [
        "ĘĖĕ",
        "ėĖĕ"
      ],
      [
        "ĖĖĖĖĖĖĖĕ",
        "ĖĖĕĖĖ"
      ],
      [
        "ėĂ",
        "ėĕĖĖĖĖĖĖĖĖĖĖĖ"
      ],
      [
        "ĖĕĖĖĕ",
        "ĖĖė"
      ],
      [
        "ĖĖĖĖĖĖė",
        "ĖĖĖĖĖ"
      ],
      [
        "Ě",
        "Đ"
      ],
      [
        "ĕ",
        "ĖĜ"
      ],
      [
        "Ę",
        "ĖĖĖĖĖė"
      ],
      [
        "ėĖ",
        "ď"
      ],
      [
        "Ėė",
        "ėĖĖ"
      ],
      [
        "ĕĕ",
        "ĖĘ"
      ],
      [
        "ĖĖĕ",
        "ĖĖĖĖĖĖ"
      ],
      [
        "ĕĖĖĕ",
        "ĖĖĖĖĖ"
      ],
      [
        "Ėė",
        "ĖĖĘ"
      ],
      [
        "ėĖĖĕ",
        "Ėĕ"
      ],
      [
        "ėĖĖĘ",
        "Ėĕ"
      ],
      [
        "ėĖĖĖĖĖĖĖĖ",
        "Ė"
      ],
      [
        "ėĕĖĖĖĖė",
        "ĖĖĖĖĖĖ"
      ],
      [
        "ėĖĖĖė",
        "ĖĖėĖĖĖĖĖ"
      ],
      [
        "ėĀ",
        "Ęĕ"
      ],
      [
        "Ĕ",
        "ėĘ"
      ],
      [
        "ĖĖĖĖĖė",
        "ĖĖėĖĖ"
      ],
      [
        "Ĕĕ",
        "ĖĖĖĖĖĖĖĖĖĖĖ"
      ],
      [
        ",",
        "Ĉ"
      ],
      [
        "ē",
        "Ėėĕ"
      ],
      [
        "Ėė",
        "ėĖė"
      ],
      [
        "Ĕ",
        "ĖĖĕĖė"
      ],
      [
        "ĖĖĕĖĖė",
        "ĖĖĖ"
      ],
      [
        "ĕĕ",
        "Ėĕĕ"
      ],
      [
        "ėĈ",
        "ĖĖĖĖĖĖĖĖĖĖĖĖĖ"
      ],
      [
        "ėĔ",
        "ĖĘ"
      ],
      [
        "ėė",
        "ėė"
      ],
      [
        "ėĖĖĖĖ",
        "ĖĖĕĖĖĕĖĖ"
      ],
      [
        "ę",
        "&"
      ],
      [
        "ĖĖĔ",
        "ĕ"
      ],
      [
        "ėĕĖė",
        "ĖĖė"
      ],
      [
        "Ėĕ",
        "ĖĕĖĖė"
      ],
      [
        "Ĕ",
        "ĖĖĖĖĖ"
      ],
      [
        "ėĕĖĖĖĖĖĕ",
        "ĖĖĕĖĖ"
      ],
      [
        "Ĕ",
        "Ėđ"
      ],
      [
        "ĖĕĖĖĕ",
        "ĖĖĖĖĖĕĖĖ"
      ],
      [
        "ĖĖĖė",
        "ĖĘ"
      ],
      [
        "ėĄ",
        "ėĖĖĖĖĖĖĖĖĖĖĖĖ"
      ],
      [
        "Ĕ",
        "\""
      ],
      [
        "ĖĖĔ",
        "ĖĖĖĖĖ"
      ],
      [
        "ē",
        "ě"
      ],
      [
        "ĕĕ",
        "Ė"
      ],
      [
        "ĖĖĖĖ",
        "ĖĖėĖė"
      ],
      [
        "Ėē",
        "ĖĖĕ"
      ],
      [
        "đ",
        "Ėė"
      ],
      [
        "ĖĖĖĕ",
        "ĖĖĖĖĕ"
      ],
      [
        "Ĕ",
        "ĖĖĖĖĖĖĖĖĖĖĖĖ"
      ],
      [
        "ėĖĔ",
        "ĖĖĕ"
      ],
      [
        "ĖĖĖė",
        "ĖĕĖĖĖ"
      ],
      [
        "Ėĕ",
        "ėĕ"
      ],
      [
        "ėĕĖė",
        "ĖĖĖĖĖĖĖĖĖ"
      ],
      [
        "ėĖĕ",
        "ĕĖė"
      ],
      [
        "ėĀ",
        "ĖĕĖĕ"
      ],
      [
        "ĕĖĕ",
        "ĖĖĖĖĖĖĖĖĖ"
      ],
      [
        "Ĕĕ",
        "ĖĖĕ"
      ],
      [
        "ėĔ",
        "Ėĕĕ"
      ],
      [
        "ĖĖėĖĖė",
        "ĖĖėĖĖ"
      ],
      [
        "Ĕ",
        "ā"
      ],
      [
        "Ę",
        "Ėě"
      ],
      [
        "Ę",
        "ėĔ"
      ],
      [
        "Ě",
        "ą"
      ],
      [
        "ĖĖĖĖĕ",
        "ĖĖĖĖĖ"
      ],
      [
        "Ėĕ",
        "ĖĕĖĖĕ"
      ],
      [
        "Ĕ",
        "#"
      ],
      [
        "ėĖĖĖĖĖė",
        "ĖĖ"
      ],
      [
        "Ėė",
        "ĖĖėĖĕ"
      ],
      [
        "ĕĕ",
        "Ĕ"
      ],
      [
        "ė",
        "+"
      ],
      [
        "ĖĕĖĖė",
        "ĖĖĖ"
      ],
      [
        "Ě",
        "ď"
      ],
      [
        "ĕĕ",
        "Ėėĕ"
      ],
      [
        "ĕĕ",
        "ĖĖė"
      ],
      [
        "ĔĖė",
        "ĖĖĖ"
      ],
      [
        "ĕ",
        "ĖĖĕĖĖ"
      ],
      [
        "Ě",
        "Ėē"
      ],
      [
        "ĕĕ",
        "Ę"
      ],
      [
        "Ě",
        "ā"
      ],
      [
        "ĖĖė",
        "ėĖĖ"
      ],
      [
        "ėă",
        "ĖĕĖĖĖĖĖĖĖĖĖĖĖ"
      ],
      [
        "ĖĖĖĕ",
        "ĖĔ"
      ],
      [
        "ę",
        "ėė"
      ],
      [
        "Ě",
        "ĝ"
      ],
      [
        "ĖĖĕ",
        "ĕĖĖ"
      ],
      [
        "ę",
        "ĖĖĖĖĖĖĖĖĖĖĖĖ"
      ],
      [
        "Ĕ",
        "ėĖĕ"
      ],
      [
        "ėĕ",
        "ē"
      ],
      [
        "ĖĖĕ",
        "ĕĖė"
      ],
      [
        "ėĕ",
        "ĖĕĖĖĕ"
      ],
      [
        "ĖĖė",
        "ĕĖė"
      ],
      [
        "Ę",
        "ĘĖė"
      ],
      [
        "ę",
        "ĖĖę"
      ],
      [
        "ĖĖĕ",
        "ėĖĖ"
      ],
      [
        "Ē",
        "Ē"
      ],
      [
        "ėĀ",
        "ĖĖĖĖĖĖĕ"
      ],
      [
        "ėą",
        "ėĖĖĖĖĖĖĖĖĖĖĖĖ"
      ],
      [
        "ĖĖė",
        "ĖĖĖĕ"
      ],
      [
        "ĖĖĖĖ",
        "ĖĖĕĖĕ"
      ],
      [
        "ĕ",
        "Ĕĕ"
      ],
      [
        "ę",
        "ėĖĕ"
      ],
      [
        "ě",
        "Ėĕ"
      ],
      [
        "Ĕ",
        "$"
      ],
      [
        "ĕĖĖĕ",
        "ĖĖĖĖĖĖĖĖ"
      ],
      [
        "ĖĖĖĖĕĕ",
        "Ėė"
      ],
      [
        "Ėĕĕ",
        "ĖĖĖĖė"
      ],
      [
        "ę",
        "'"
      ],
      [
        "Ę",
        "*"
      ],
      [
        "Ě",
        "Ď"
      ],
      [
        "ĖĔ",
        "ĖĘ"
      ],
      [
        "ĖĖĖĖĖĖĕ",
        "ĖĖĖĖĖ"
      ],
      [
        "Ė",
        "+"
      ],
      [
        "Ā",
        "Ĉ"
      ],
      [
        "ĖĖė",
        "ĕĖĖ"
      ]
    ]
  }
}