{
  "version": "1.0",
  "truncation": null,
  "padding": null,
  "added_tokens": [],
  "normalizer": null,
  "pre_tokenizer": {
    "type": "ByteLevel",
    "add_prefix_space": false,
    "trim_offsets": true,
    "use_regex": true
  },
  "post_processor": {
    "type": "ByteLevel",
    "add_prefix_space": true,
    "trim_offsets": false,
    "use_regex": true
  },
  "decoder": {
    "type": "ByteLevel",
    "add_prefix_space": true,
    "trim_offsets": true,
    "use_regex": true
  },
  "model": {
    "type": "BPE",
    "dropout": null,
    "unk_token": null,
    "continuing_subword_prefix": null,
    "end_of_word_suffix": null,
    "fuse_unk": false,
    "byte_fallback": false,
    "ignore_merges": false,
    "vocab": {
      "\u0000": 0,
      "\u0001": 1,
      "\u0002": 2,
      "\u0003": 3,
      "\u0004": 4,
      "\u0005": 5,
      "\u0006": 6,
      "\u0007": 7,
      "\b": 8,
      "\t": 9,
      "\n": 10,
      "\u000b": 11,
      "\f": 12,
      "\r": 13,
      "\u000e": 14,
      "\u000f": 15,
      "\u0010": 16,
      "\u0011": 17,
      "\u0012": 18,
      "\u0013": 19,
      "\u0014": 20,
      "\u0015": 21,
      "\u0016": 22,
      "\u0017": 23,
      "\u0018": 24,
      "\u0019": 25,
      "\u001a": 26,
      "\u001b": 27,
      "\u001c": 28,
      "\u001d": 29,
      "\u001e": 30,
      "\u001f": 31,
      " ": 32,
      "!": 33,
      "\"": 34,
      "#": 35,
      "$": 36,
      "%": 37,
      "&": 38,
      "'": 39,
      "(": 40,
      ")": 41,
      "*": 42,
      "+": 43,
      ",": 44,
      "Ā": 45,
      "ā": 46,
      "Ă": 47,
      "ă": 48,
      "Ą": 49,
      "ą": 50,
      "Ć": 51,
      "ć": 52,
      "Ĉ": 53,
      "ĉ": 54,
      "Ċ": 55,
      "ċ": 56,
      "Č": 57,
      "č": 58,
      "Ď": 59,
      "ď": 60,
      "Đ": 61,
      "đ": 62,
      "Ē": 63,
      "ē": 64,
      "Ĕ": 65,
      "ĕ": 66,
      "Ė": 67,
      "ė": 68,
      "Ę": 69,
      "ę": 70,
      "Ě": 71,
      "ě": 72,
      "Ĝ": 73,
      "ĝ": 74,
      "Ğ": 75,
      "ğ": 76,
      "Ġ": 77,
      "ĖĖ": 78,
      "ĖĖĖĖ": 79,
      "Ėĕ": 80,
      "ĖĖĖĖĖĖĖĖ": 81,
      "ėĖĖ": 82,
      "ĖĖĖ": 83,
      "ĖĖĕ": 84,
      "ĖĕĖĖĖĖĖĖĖĖ": 85,
      "ĖĕĖĖĖĖĖĖĖĖĖĖĖ": 86,
      "ĖĖĖĖĖ": 87,
      "ėĀ": 88,
      "ėĀĖĕĖĖĖĖĖĖĖĖĖĖĖ": 89,
      "Ėė": 90,
      "ĖĔ": 91,
      "ĖĖĕĖĖ": 92,
      "ĘĖĖ": 93,
      "ĖĕĖĖ": 94,
      "ĕĖ": 95,
      "ėĖ": 96,
      "ĕĖĖ": 97,
      "ĔĖĖ": 98,
      "ėĖĖėĖĖ": 99,
      "ĖĕĖĖĕ": 100,
      "ėĖĖĖĖĖ": 101,
      "ėă": 102,
      "ēĖĖ": 103,
      "ĖĕĖĖĖĖĖ": 104,
      "ĖĖĖĖĖĖĖĖĖĖĖĖĖ": 105,
      "Ęă": 106,
      "ĔĖ": 107,
      "ėĖĖĖĖ": 108,
      "ėĖĕ": 109,
      "ęĖĖ": 110,
      "ĕĕ": 111,
      "ĖėĖĖ": 112,
      "ėā": 113,
      "ėĖĖĖĖĖĖĖĖ": 114,
      "ėĕ": 115,
      "Ėĕĕ": 116,
      "ėĖė": 117,
      "ĖĖĖĖĕ": 118,
      "ĖĖĕĖĖĖĖĖ": 119,
      "ĘĖ": 120,
      "Ėă": 121,
      "ĖĔĖĖ": 122,
      "ĖĖĖĖĖĖ": 123,
      "ėĂ": 124,
      "ĖĕĖĖĖĖ": 125,
      "ĖĘ": 126,
      "ĘĀ": 127,
      "Ėē": 128,
      "ĖĖĖĖĖĖĖ": 129,
      "ĖĕĖĖĕĖĖ": 130,
      "ĖĖĕĖĖĕĖĖ": 131,
      "ĖĖĖĖĖĖĖĖĖĖ": 132,
      "ĔĖė": 133,
      "ėĄ": 134,
      "ĒĖĖ": 135,
      "ėĖĖĕ": 136,
      "ĖĖĖĖĖĕĖĖ": 137,
      "ęă": 138,
      "Ęā": 139,
      "ĖĕĖĖĕĖĖĖĖĖĖĖĖ": 140,
      "ėĖĖĕĖĖ": 141,
      "ĘĂ": 142,
      "ĚĖĖ": 143,
      "ĕĖė": 144,
      "ĖĖĖĖĖĖĖĖĖĖĖ": 145,
      "ĖĀ": 146,
      "ĔĖĖĕĖĖ": 147,
      "ēĖ": 148,
      "ĘĖĕ": 149,
      "ĖĔĖĖĕ": 150,
      "ĔĖĕ": 151,
      "ĘĄ": 152,
      "ĖĖĖĖĖĖĖĖĖĖĖĖ": 153,
      "ĖĖĖĖĖėĖĖ": 154,
      "ĘĖĖėĖĖ": 155,
      "ĔĖĖĕ": 156,
      "ĘĖė": 157,
      "ęĖ": 158,
      "ėė": 159,
      "ĕĖĕ": 160,
      "ĖĂ": 161,
      "ĔĖĖĖĖĖ": 162,
      "Ėā": 163,
      "ĕă": 164,
      "ėĖĔ": 165,
      "ĖĖĖĖėĖĖ": 166,
      "Ęĕ": 167,
      "Ĕĕ": 168,
      "ĖĄ": 169,
      "đĖĖ": 170,
      "Ėę": 171,
      "ĖĕĖĖėĖĖ": 172,
      "ĖĒ": 173,
      "ēĖė": 174,
      "ĖĕĖė": 175,
      "ĘĖĖĖĖĖ": 176,
      "ėĖĖĖĖĖĖĖĖĖĖ": 177,
      "ĕĖėĖĖ": 178,
      "ėĖėĖĖ": 179,
      "ĖĕĖĖĖĖĖĖĖĖĕĖĖ": 180,
      "ĖĕĖĖĖĖĖĖĖĖėĖĖ": 181,
      "ĕĖĘ": 182,
      "ęĀ": 183,
      "ėĖĘ": 184,
      "ĘĖĖĘĖĖ": 185,
      "ĖĕĖĖĖĖĖĕĖĖĖĖĖ": 186,
      "ėĖĖėĖĖėĖĖ": 187,
      "ĖĕĖĖĕĖĖĕĖĖĖĖĖ": 188,
      "ĔĖĖĔĖĖ": 189,
      "ėāĖĕĖĖĖĖĖĖĖĖĖĖĖ": 190,
      "ěĖĖ": 191,
      "ėą": 192,
      "ĖēĖĖ": 193,
      "ĕĖĖĕ": 194,
      "ėĔ": 195,
      "ėĆ": 196,
      "ĖĖĖĖĕĖĖ": 197,
      "ęĂ": 198,
      "ĖĖĖĖĖĖĖĖĖĖėĖĖ": 199,
      "ĖėĖĖėĖĖ": 200,
      "ĖĖĖĖė": 201,
      "Ęăĕ": 202,
      "ĖĘĖĖ": 203,
      "ēĖĕ": 204,
      "ĖĚ": 205,
      "ęĖĕ": 206,
      "ĖĕĖĖĖĖĖėĖĖĖĖĖ": 207,
      "ėć": 208,
      "ęā": 209,
      "ėĘ": 210,
      "ėĖĕĖĖ": 211,
      "ĖĖĖĖĖĖĖėĖĖĖĖĖ": 212,
      "ėĖĖĖĖĖėĖĖ": 213,
      "ĖĖĖĖĖĖĖĖĖĖĕĖĖ": 214,
      "ĖĖĖėĖĖ": 215,
      "Ėđ": 216,
      "ĕĖĔ": 217,
      "ėĈ": 218,
      "Ěă": 219,
      "ėĕĖĖ": 220,
      "ęĄ": 221,
      "ĖĖĕĖė": 222,
      "ėē": 223,
      "ĖĐ": 224,
      "ėĖĖĖĖĕ": 225,
      "ėėĖĖ": 226,
      "ĕĀ": 227,
      "ėĒ": 228,
      "ėĖĖĖĖĖĕĖĖ": 229,
      "ęĖė": 230,
      "ĕĖē": 231,
      "ĕĔ": 232,
      "ėĖĖĖĖĖĖ": 233,
      "ĖĕĖĕ": 234,
      "ĖĕĖĖĕĖĖĕĖĖ": 235,
      "ĖĔĖĖĕĖĖ": 236,
      "ĖĕĕĖĖĖĖĖĖĖĖĖĖ": 237,
      "ĖĕĖĖĕĖĖĕĖĖĕĖĖ": 238,
      "ĖĖĖĖĖĖĖĕĖĖĖĖĖ": 239,
      "ĕĖĖĖĖ": 240,
      "Ėě": 241,
      "ėĕĖ": 242,
      "ĖĖĖĖėĖĖĖĖĖĖĖĖ": 243,
      "ėĐ": 244,
      "ĖĕĖĖĕĖĖĖĖĖ": 245,
      "ėĖē": 246,
      "ėĎ": 247,
      "ĔĖĘ": 248,
      "ėď": 249,
      "ėĖĖĘĖĖ": 250,
      "ėđ": 251,
      "ĕā": 252,
      "ĕĂ": 253,
      "ėĖę": 254,
      "ĖĜ": 255,
      "ĕĖę": 256,
      "ĖĖĖĖĕĖĖĖĖĖĖĖĖ": 257,
      "ĐĖĖ": 258,
      "Ėď": 259,
      "ĖĕĖĖĖĖĖĕĖĖĕĖĖ": 260,
      "ėę": 261,
      "ĖĕĖĖĕĖĖĖĖĖĕĖĖ": 262,
      "ĖĔĖĖĖĖĖ": 263,
      "ĖėĖĖĖĖĖ": 264,
      "ĖĖĖĖĖĖĖĖėĖĖ": 265,
      "ėėĖ": 266,
      "ĕē": 267,
      "ĖĕĖĖĖ": 268,
      "ėĚ": 269,
      "ĕĕĖĖ": 270,
      "ĜĖĖ": 271,
      "ĔĖĔ": 272,
      "Ęą": 273,
      "ĔĖĖėĖĖ": 274,
      "ĘĖĖĕĖĖ": 275,
      "ĖĖĖĖĖĖĖĖĕĖĖ": 276,
      "ĖĕĖĖĔ": 277,
      "ĖėĖĖĕ": 278,
      "ĖĕĖĖĖĖĖėĖĖėĖĖ": 279,
      "ĘĆ": 280,
      "ĖĖĖĖĖĕĖĖĖĖĖ": 281,
      "ĖĎ": 282,
      "ĖĕĖĖĔĖĖ": 283,
      "ĘĖĔ": 284,
      "ĖĕėĖĖĖĖĖĖĖĖĖĖ": 285,
      "ĖĖĖĖĖĖĖėĖĖėĖĖ": 286,
      "ĕĖĖĖ": 287,
      "Ėĝ": 288,
      "ĖĕĖĖĕĖĖĖĖĖėĖĖ": 289,
      "ĒĖė": 290,
      "Ęć": 291,
      "ėĂĖĕĖĖĖĖĖĖĖĖĖĖĖ": 292,
      "ĕĄ": 293,
      "ėĕĖė": 294,
      "ĘĖĘ": 295,
      "ĖĔĖĖĔ": 296,
      "ĘĖĖĕ": 297,
      "ĖĔĖė": 298,
      "ėě": 299,
      "ĘĈ": 300,
      "Ėĕė": 301,
      "Ĕă": 302,
      "ĘĎ": 303,
      "ĖĖĕĖĖĖĖĖĖĖĖ": 304,
      "ēĖĖĕĖĖ": 305,
      "ĖĕĕĖė": 306,
      "Ęď": 307,
      "ĖĔĕ": 308,
      "ĕĖĒ": 309,
      "Ęăĕĕ": 310,
      "ĖĔĖĖĕĖĖĖĖĖĖĖĖ": 311,
      "ĖĖĖĖėĖĖėĖĖĖĖĖ": 312,
      "ĘĒ": 313,
      "Ěā": 314,
      "ĖĕĖ": 315,
      "Ęē": 316,
      "Ęđ": 317,
      "ĕė": 318,
      "ĘĐ": 319,
      "ĖĖĕĖĕ": 320,
      "ĚĂ": 321,
      "ĘĔ": 322,
      "ĕĖĚ": 323,
      "ėĖĚ": 324,
      "ĖĞ": 325,
      "ėăĖĕĖĖĖĖĖĖĖĖĖĖĖ": 326,
      "ĚĀ": 327,
      "ėĜ": 328,
      "ĔĖėĖĖ": 329,
      "ėėĖĕ": 330,
      "ėĖĖĕĖĖĖĖĖ": 331,
      "ęăĕ": 332,
      "ĘĘ": 333,
      "ĖĖĖĖĖĖĖĕĖĖĕĖĖ": 334,
      "ėăĕ": 335,
      "ėĖĒ": 336,
      "ēĖĖĔĖĖ": 337,
      "ęĖĖėĖĖ": 338,
      "ēĕ": 339,
      "ĕĖĖėĖĖ": 340,
      "ĖĒĖĖ": 341,
      "Ėą": 342,
      "ĖĖĖĖĖĖĖėĖĖ": 343,
      "ĖĖĕĖĖĖĖĖĖĖĖĖĖ": 344,
      "ĖĆ": 345,
      "ĕĕĖė": 346,
      "ęĖĖĘĖĖ": 347,
      "Ėć": 348,
      "ėĝ": 349,
      "ĘĚ": 350,
      "ĖĖĖĖėĖĖėĖĖ": 351,
      "ĖĈ": 352,
      "ĖĔĖĖĖĖĖĖĖĖĖĖĖ": 353,
      "ėĀĖĖĖĖĖĖĖĖĖĖĖĖĖ": 354,
      "ĘĕĖ": 355,
      "ĔĖē": 356,
      "ĖĕĖėĖĖ": 357,
      "ĖĖĕĖĖĖĖĖėĖĖ": 358,
      "ĔĖę": 359,
      "ĖĖĖĖĖĕĖĖĕĖĖ": 360,
      "Ęę": 361,
      "ĖĕĖĖĖĖĖėĖĖ": 362,
      "ĖĕėĖĖĖĖ": 363,
      "Ĕā": 364,
      "ďĖĖ": 365,
      "ĖĕĖĖėĖĖĖĖĖĖĖĖ": 366,
      "ėĖĖĖĖĖĖĖĖĖĖĖ": 367,
      "ėāĖĖĖĖĖĖĖĖĖĖĖĖĖ": 368,
      "ĕĖĖĖĖĖ": 369,
      "Ėğ": 370,
      "ĝĖĖ": 371,
      "ĖĔĖĖĔĖĖ": 372,
      "ėĖĘĖĖ": 373,
      "ĖĔĖĖĕĖĖĕĖĖĖĖĖ": 374,
      "ĔĕĖ": 375,
      "ėĞ": 376,
      "ĖĖĖĖĕĖĖĖĖĖ": 377,
      "ĖĖĕĖĖėĖĖ": 378,
      "ĖėĖė": 379,
      "ĒĖĕ": 380,
      "Ęě": 381,
      "ĖĖĖĖĖĖĖĕĖĖ": 382,
      "ĖĖĖĖėĖĖėĖĖėĖĖ": 383,
      "ĖĖĖĖĘĖĖ": 384,
      "ĚĖĕ": 385,
      "ęĕ": 386,
      "ĖĖĖĖĖĕ": 387,
      "ėĖĔĖĖ": 388,
      "ėėĖė": 389,
      "ĔĀ": 390,
      "ĖęĖĖ": 391,
      "ĖĖĖĖĕĖĖĕĖĖĖĖĖ": 392,
      "ĘėĖ": 393,
      "ĖĕĕĖĕ": 394,
      "ĖėĖĕ": 395,
      "ĘĜ": 396,
      "ĘĖē": 397,
      "ĕĖđ": 398,
      "ėĖĖĕĖĖĕĖĖ": 399,
      "ĖĖĖĖėĖĖĖĖĖ": 400,
      "ĕĖĘĖĖ": 401,
      "ĖėĖĖĘĖĖ": 402,
      "ĕĒ": 403,
      "ĔĂ": 404,
      "ĚĖė": 405,
      "đĖĖĖĖĖĖĖĖĖĖĖĖ": 406,
      "ėĖĕĖĖĖ": 407,
      "ėğ": 408,
      "ĖĖĖĕ": 409,
      "ĚĄ": 410,
      "ėĖě": 411,
      "ė,": 412,
      "ėĄĖĕĖĖĖĖĖĖĖĖĖĖĖ": 413,
      "ēĖĖĖĖĖ": 414,
      "Ęĝ": 415,
      "ěă": 416,
      "ĘĖę": 417,
      "ēĖĘ": 418,
      "ėĔĖĖ": 419,
      "ĘĖĖĖĖĖĖĖĖ": 420,
      "ĕĖě": 421,
      "ėĖđ": 422,
      "ĘĞ": 423,
      "ėĕĖĕ": 424,
      "Ė!": 425,
      "ĕĖĕĖĖ": 426,
      "Ė,": 427,
      "ĖėĖĖĖ": 428,
      "ėĘĖĖ": 429,
      "ĔĖĒ": 430,
      "Ė\"": 431,
      "ĕĕĖĖĖĖĖĖĖĖĖĖĖ": 432,
      "ĖĖėĖĖĖĖĖĖĖĖĖĖ": 433,
      "ĘĖĖĖ": 434,
      "ė!": 435,
      "ĕĖĖĕĖĖ": 436,
      "ĖĖĕĖĖĕĖĖĖĖĖ": 437,
      "ěā": 438,
      "ĕę": 439,
      "ĖĕĖĖĖĖĖĕĖĖ": 440,
      "ēĖĔ": 441,
      "ĖĖĖĖėĖĖĖĖĖėĖĖ": 442,
      "Ęğ": 443,
      "Ę,": 444,
      "ĚĖĖĖĖĖĖĖĖĖĖĖĖ": 445,
      "ĖĔĖĖĕĖĖĕĖĖĕĖĖ": 446,
      "ėėĖĖĖĖ": 447,
      "ėĖĖėĖĖĕĖĖ": 448,
      "ĖĖĖĖĔ": 449,
      "ĖėĖĖĕĖĖ": 450,
      "ĔĔ": 451,
      "ĘĀĖĖĖĖĖĖĖĖĖĖĖĖĖ": 452,
      "ĔĖĚ": 453,
      "ęĖĖĖĖĖ": 454,
      "ĔĖĖēĖĖ": 455,
      "ĕĖĐ": 456,
      "ĖĖĖĖĕĖĖĕĖĖ": 457,
      "ĔėĖ": 458,
      "ĕđ": 459,
      "Ę!": 460,
      "Ęė": 461,
      "ėĖĕėĖĖ": 462,
      "ĖĖĖĖĖĖĕ": 463,
      "ĖėĖĖĖĖĖĖĖĖĖĖĖ": 464,
      "ĕĘ": 465,
      "ėĀĖĕĖĖĕĖĖĖĖĖĖĖĖ": 466,
      "ĖĖĖĖĖĖĖĕ": 467,
      "ė\"": 468,
      "ēĖĖēĖĖ": 469,
      "ĖĖĖĖėĖĖĖĖĖĕĖĖ": 470,
      "ęĖĔ": 471,
      "ĒĖ": 472,
      "ėĖĜ": 473,
      "ĎĖĖ": 474,
      "ĘāĖĖĖĖĖĖĖĖĖĖĖĖĖ": 475,
      "ėąĖĕĖĖĖĖĖĖĖĖĖĖĖ": 476,
      "ēĖĖĕ": 477,
      "ĘĖĚ": 478,
      "ĖĖĖĖĕĖĖĕĖĖĕĖĖ": 479,
      "ėĖĖĖĖĖĖĖĕĖĖ": 480,
      "ĕĖĜ": 481,
      "ĕĔĖĖ": 482,
      "ĞĖĖ": 483,
      "ĖĔĖĖėĖĖ": 484,
      "ĖĕĖĖėĖĖėĖĖĖĖĖ": 485,
      "đĖė": 486,
      "ĖĖĖė": 487,
      "ĖĕĖĖė": 488,
      "ėĖĖĖĖė": 489,
      "ėĖėėĖĖ": 490,
      "ĖĖĖĖĕĖĖĖĖĖĕĖĖ": 491,
      "ĕĖĖĖĖĖĖĖĖ": 492,
      "Ėăėĕ": 493,
      "ėĖĖĖĖĖĖĖĖĖĖĖĖ": 494,
      "ĖĕĖĖĕĖĖėĖĖĖĖĖ": 495,
      "ĔĖĖĕĖė": 496,
      "ĖĖėĖĖĖĖ": 497,
      "ĕėĖĖ": 498,
      "ėĖĖėĖĖėĖĖĖĖĖ": 499,
      "ĕĚ": 500,
      "ěĂ": 501,
      "ĖĖĖĖĖĖĖĖĖ": 502,
      "ĔĖđ": 503,
      "ėăėĖĖ": 504,
      "Ė#": 505,
      "ĘĖĖęĖĖ": 506,
      "ēā": 507,
      "ėăĖĕĖĖ": 508,
      "ėĖĐ": 509,
      "ėāĖĕĖĖĕĖĖĖĖĖĖĖĖ": 510,
      "ęĖĘ": 511,
      "ĔĖĖĕĖĖĖĖĖ": 512,
      "ĘĖĒ": 513,
      "ĕĕĖĖĕ": 514,
      "ĖĖĖĖĕĖĖĖĖĖėĖĖ": 515,
      "ĖēĖė": 516,
      "ĔĖĖĕĖĖĕĖĖ": 517,
      "ĕĕĖĖĖĖĖ": 518,
      "ė#": 519,
      "ėĔĖė": 520,
      "ęą": 521,
      "ĒĖĖĖĖĖĖĖĖĖĖĖĖ": 522,
      "ĕĖēĖĖ": 523,
      "ěĀ": 524,
      "ĖĖĖĖĘ": 525,
      "ęĆ": 526,
      "ėĖĖĖĖĕĖĖĖĖĖ": 527,
      "Ę\"": 528,
      "ĕ,": 529,
      "ėĖĖĕĖĖėĖĖ": 530,
      "ĔĖĖĕĖĖĖĖĖĖĖĖ": 531,
      "ĕĖĖĖĖĖĖĖĖĖĖĖĖ": 532,
      "ĖĔĖĖĕĖĖĕĖĖ": 533,
      "ēă": 534,
      "ĔĖĖĖ": 535,
      "ęĘ": 536,
      "ęć": 537,
      "ėĖĖĕĖė": 538,
      "ĕě": 539,
      "ĖĕĕĖĕĖĖĖĖĖĖĖĖ": 540,
      "ęĈ": 541,
      "ĖĕĖĖĕĖĖĕĖĖėĖĖ": 542,
      "ęĕĖ": 543,
      "ęĒ": 544,
      "ĖĕĖĖĕĖė": 545,
      "ė$": 546,
      "ĖĕĖĖĖĖĖĕĖĖėĖĖ": 547,
      "ĔĖě": 548,
      "ĔĖĖĖĖĖĖĖĖ": 549,
      "ĕĐ": 550,
      "ĔĄ": 551,
      "ĚĖ": 552,
      "ĖĔĖĖĕĖĖĖĖĖĕĖĖ": 553,
      "ėĖĕĖĖĖĖĖĖĖĖ": 554,
      "ĕĕĖĕ": 555,
      "ęĖĖęĖĖ": 556,
      "ĖĕĖĖĕĖĖĕ": 557,
      "ĔĖĖĕĖĖėĖĖ": 558,
      "ĖĔĖĕ": 559,
      "ĘėĖĖ": 560,
      "ĖēĖĖĕĖĖ": 561,
      "ĖĖĖĖĖĕĖĖėĖĖ": 562,
      "ęėĖ": 563,
      "Ę#": 564,
      "ĕĖď": 565,
      "ėĆĖĕĖĖĖĖĖĖĖĖĖĖĖ": 566,
      "ĖăėĖĖ": 567,
      "ėĖėĖĖĖ": 568,
      "ĕĖĖĔĖĖ": 569,
      "ĖĕĖĖĘĖĖ": 570,
      "ęĔ": 571,
      "ęĚ": 572,
      "Ēĕ": 573,
      "ęě": 574,
      "Ė$": 575,
      "ĖėĖĖėĖĖĖĖĖĖĖĖ": 576,
      "ĘĖě": 577,
      "ęĐ": 578,
      "ĕĜ": 579,
      "ėĕĖĖĕ": 580,
      "ĔĖĐ": 581,
      "ę,": 582,
      "ęđ": 583,
      "ėĕĖĖĖĖĖĖĖĖĖĖĖ": 584,
      "ė%": 585,
      "ėĖĝ": 586,
      "ēĕĖ": 587,
      "ēĖē": 588,
      "ęď": 589,
      "ēĀ": 590,
      "ĖĖĖĖĔĖĖ": 591,
      "ĖĕĖĖĖĖĖėĖĖĕĖĖ": 592,
      "ėĖĖĖĖĖĖĖ": 593,
      "Ę$": 594,
      "ęĎ": 595,
      "Ėăė": 596,
      "ėĖēĖĖ": 597,
      "đę": 598,
      "ėĕĖĖĖĖĖ": 599,
      "ĔĖĖĕĖĕ": 600,
      "ĖĕėĖĕĖĖĖĖĖĖĖĖ": 601,
      "ęĜ": 602,
      "ĖēĖĖĕ": 603,
      "ęăĔ": 604,
      "Ēę": 605,
      "ĖĕĖĖėĖĖėĖĖėĖĖ": 606,
      "ėĕĕ": 607,
      "ĖđĖĖ": 608,
      "ė&": 609,
      "Đę": 610,
      "ĕĖĝ": 611,
      "ĖĕĖĖėĖĖĖĖĖ": 612,
      "Ė%": 613,
      "ĕď": 614,
      "ĘĕĖė": 615,
      "ĘăĔ": 616,
      "đĖĕ": 617,
      "ėĖĖėĖĖĘĖĖ": 618,
      "ēĂ": 619,
      "ěĖĕ": 620,
      "ĕĖĔĖĖ": 621,
      "Ę&": 622,
      "ĖĖĖĖĖĖėĖĖ": 623,
      "ĖĔĖĖĕĖĖĖĖĖėĖĖ": 624,
      "ğĖĖ": 625,
      "ĖĖĖĖĖĖĖėĖĖĕĖĖ": 626,
      "ēĖę": 627,
      "ĖĔĖĖĖĖĖĕĖĖĖĖĖ": 628,
      "ėĖĖĖė": 629,
      "ĖĕĖĖĖĖĕ": 630,
      "ĕĔĖė": 631,
      "ėćĖĕĖĖĖĖĖĖĖĖĖĖĖ": 632,
      "ėĖď": 633,
      "ĖĖĖĖĖĖĖĕĖĖėĖĖ": 634,
      "ėăė": 635,
      "ēĖĖėĖĖ": 636,
      "ĖĕĖĖĕĖĖėĖĖėĖĖ": 637,
      "Ę%": 638,
      "Ĝā": 639,
      "ĘĖđ": 640,
      "ĔĖĜ": 641,
      "ěĖė": 642,
      "ęē": 643,
      "ĘĖĜ": 644,
      "Ė&": 645,
      "ęĝ": 646,
      "ĕĖęĖĖ": 647,
      "ėĖĖėĖĖĖĖĖĖĖĖ": 648,
      "ĕĝ": 649,
      "ēĖĒ": 650,
      "ĖĘĖĖĘĖĖ": 651,
      "ĖĖĖėĖ": 652,
      "ĖĚĖĖ": 653,
      "ēĔ": 654,
      "ĖĔĖĖĖĖĖĖĖĖĕĖĖ": 655,
      "ėĂĖĖĖĖĖĖĖĖĖĖĖĖĖ": 656,
      "ĘĕĖĖ": 657,
      "ĕĎ": 658,
      "ėĖĖĕĖĕ": 659,
      "ĖĘĖĖėĖĖ": 660,
      "ĖĘĖĕ": 661,
      "ęĖĖĕ": 662,
      "ĖĕĖĖĖĖĖĖĖĖĖĖ": 663,
      "ė'": 664,
      "ėĖęĖĖ": 665,
      "ėĈĖĕĖĖĖĖĖĖĖĖĖĖĖ": 666,
      "ĔĖėĕĖĖ": 667,
      "ĕć": 668,
      "ėăĖĖĖĖĖĖĖĖĖĖĖĖĖ": 669,
      "ĕą": 670,
      "ĖėĖĖėĖĖėĖĖĖĖĖ": 671,
      "ĖĔĖĖĖĖĖĖĖĖėĖĖ": 672,
      "ěĖĖĖĖĖĖĖĖĖĖĖĖ": 673,
      "ĔĖĖĘĖĖ": 674,
      "ėĕĖėĖĖ": 675,
      "Ėėĕ": 676,
      "ĘėĖĕ": 677,
      "ĕĆ": 678,
      "ēę": 679,
      "ĖĕĖĖėĖĖĖĖĖėĖĖ": 680,
      "ėăĖĖĖĖ": 681,
      "ĕĕĖĖĕĖĖ": 682,
      "ĔĖď": 683,
      "ĒĖĘ": 684,
      "ĖėĖĖėĖĖĖĖĖ": 685,
      "Ĕē": 686,
      "Ēā": 687,
      "Ė'": 688,
      "ęĞ": 689,
      "ĕēĖĖ": 690,
      "ĕĈ": 691,
      "ęĖĖĕĖĖ": 692,
      "ēĖĚ": 693,
      "ĘăĖĖĖĖ": 694,
      "ĕĞ": 695,
      "Ĝă": 696,
      "ĕĕĕ": 697,
      "ĖĕĖĘ": 698,
      "ĖĕĖĖėĖĖĖĖĖĕĖĖ": 699,
      "ĖĕėĖĕ": 700,
      "Ĕę": 701,
      "ĠĖĖ": 702,
      "ďę": 703,
      "ĒĖĔ": 704,
      "ėėĕ": 705,
      "ėăĖĕĖė": 706,
      "ĖĕĕĖĔ": 707,
      "ėĖėĖĖĖĖĖĖĖĖ": 708,
      "ęğ": 709,
      "ėĖĕĕĖĖ": 710,
      "Ę'": 711,
      "Ę+": 712,
      "ĔĕĖė": 713,
      "ĖėĖĖėĖĖėĖĖ": 714,
      "ėĖĕĖĖĕ": 715,
      "ĖĕĖĖĘ": 716,
      "Ĕ,": 717,
      "ĖĕĖĖĕĖĖėĖĖ": 718,
      "ęę": 719,
      "ĕĖĎ": 720,
      "ėĖĖĖĖėĖĖ": 721,
      "ėĖĞ": 722,
      "ĒĖĖĔĖĖ": 723,
      "ĘĖĖĔĖĖ": 724,
      "ė(": 725,
      "ĖĘĖė": 726,
      "ĖĖĕĖĖĕ": 727,
      "ĖēĖĖĔĖĖ": 728,
      "ĘĖĐ": 729,
      "ĔĖĖĕĖĖĔĖĖ": 730,
      "ĖĕĕĖĖĖĖ": 731,
      "ę!": 732,
      "ěĄ": 733,
      "ėĖĖĖĖĖĖĖĖĖ": 734,
      "ĔĖĖĕĖĖĕĖĖĖĖĖ": 735,
      "ĘăĖĖĖĖĖĖĖĖĖĖĖĖĖ": 736,
      "ĔĒ": 737,
      "ĖėĖ": 738,
      "ĖĔĖĖēĖĖ": 739,
      "ėĖĖĖĖĕĖĖĕĖĖ": 740,
      "ĘāĖĕĖĖĖĖĖĖĖĖĖĖĖ": 741,
      "ēėĖ": 742,
      "ĖėĖĖĘ": 743,
      "ĖēĖĖĖĖĖ": 744,
      "ĘăĖė": 745,
      "ĘăĕĖĖ": 746,
      "ėăĖĔ": 747,
      "ė)": 748,
      "ĘĀĖĕĖĖĖĖĖĖĖĖĖĖĖ": 749,
      "ėĕĖĖĖĖ": 750,
      "Ěăĕ": 751,
      "ēĖđ": 752,
      "ĖĘĖĖĖĖĖ": 753,
      "ĕğ": 754,
      "ĖĖĖĖĕĖĖėĖĖĖĖĖ": 755,
      "ĔĘ": 756,
      "ĖĔĖĖĖĖĖėĖĖĖĖĖ": 757,
      "ĔĕĖĖ": 758,
      "ĜĂ": 759,
      "Ę(": 760,
      "ĘĖĕėĖĖ": 761,
      "Ė)": 762,
      "ęĖĚ": 763,
      "ĘĖĝ": 764,
      "ĔĖĝ": 765,
      "ĖĕĖĖėĖĖėĖĖ": 766,
      "ĖėĖĖėĖĖėĖĖėĖĖ": 767,
      "ėĖėĕĖĖ": 768,
      "ĕĖėĖĖĕ": 769,
      "Ė(": 770,
      "ĖĖĖĖĕĖĖĖ": 771,
      "ęĖę": 772,
      "ėĖĕėĖĕ": 773,
      "ĔĖĖĔĖĖĔĖĖ": 774,
      "ĘĂĕ": 775,
      "ĕĖĞ": 776,
      "Ę*": 777,
      "ėĔĖĕ": 778,
      "ė*": 779,
      "ĖĕĖĖĕĖĖĔĖĖĕĖĖ": 780,
      "ėĕĖĖĕĖĖ": 781,
      "ĖĕĖĖĕĖĕ": 782,
      "ĕĖĒĖĖ": 783,
      "Ěĕ": 784,
      "ėēĖĖ": 785,
      "ėăĕĕ": 786,
      ",Ď": 787,
      "ėĖĎ": 788,
      "ęĖĒ": 789,
      "ĕĖėĖĖĖ": 790,
      "ĜĀ": 791,
      "ę\"": 792,
      "ĐĖė": 793,
      "ĖĕĕĖĖĖĖĖĖĖėĖĖ": 794,
      "ĚĖĔ": 795,
      "ĚĖĘ": 796,
      "Ę)": 797,
      "ęĖē": 798,
      "ĕ!": 799,
      "ėĀĖĕĖĖĖĖĖĖĖĖĕĖĖ": 800,
      "ĖĖĖĖėĖĖėĖĖĕĖĖ": 801,
      "ėĘĖĕ": 802,
      "ėĖėĖĖĕ": 803,
      "ėĖĖĕĖĖĔĖĖ": 804,
      "ĖĕĕĖĖĖĖĖĖĖĕĖĖ": 805,
      "ĘăĕĖĖĖ": 806,
      "ĔĖĖĖĖĕ": 807,
      "ĘăĖėĖĖ": 808,
      "ĖĕĖĔ": 809,
      "ēē": 810,
      "ĔĖĖĖĖ": 811,
      "ĖĕĖĕĖĖ": 812,
      "ĚĖĖĘĖĖ": 813,
      "Ďę": 814,
      "ĒĖĖĕĖĖ": 815,
      "ĖĖĖĖĖĖĖė": 816,
      "ėĀĖĕĖĖĖĖĖĕĖĖĖĖĖ": 817,
      "ĖĖĖĖĖĖėĖĖĖĖĖ": 818,
      "ĘėĖė": 819,
      "ĖăĖĔ": 820,
      "ėĖĕĖĖĕĖĖĖĖĖ": 821,
      "ĔĖĎ": 822,
      "ĔĖĕĕĖĖ": 823,
      "ĘĂĖĖĖĖĖĖĖĖĖĖĖĖĖ": 824,
      "Ěą": 825,
      "ĖĕĕĖĖĖĖĕĖĖĖĖĖ": 826,
      "ė+": 827,
      "Ėăĕ": 828,
      "ēĖĐ": 829,
      "ēĖě": 830,
      "ėĖĖėĖĖĖĖĖ": 831,
      "ĘĖĖĖĖ": 832,
      "ĒĕĖĖĕ": 833,
      "ĖĕĕĖĕĖĖĕĖĖĖĖĖ": 834,
      "ĖĔĖĖĔĖĖĕĖĖĖĖĖ": 835,
      "ĖĖĕĖĖĕĖĖėĖĖ": 836,
      "ėĀĖĕĖĖĕĖĖĕĖĖĖĖĖ": 837,
      "ėėĖĖĖĖĖ": 838,
      "ėĀĖĕĖĖĖĖĖĖĖĖėĖĖ": 839,
      "ĖĕĖĖĔĖĖĕĖĖĖĖĖ": 840,
      "ĕ\"": 841,
      "ĖĖĖĖĕĖĖĕ": 842,
      "Ě,": 843,
      "đĖ": 844,
      "ĒĖĖēĖĖ": 845,
      "ĚĆ": 846,
      "ĖėĖĖĖĖĖėĖĖĖĖĖ": 847,
      "ĚĖĖėĖĖ": 848,
      "ĚĕĖ": 849,
      "ėĀĕ": 850,
      "ĖĖĖĖĖėĖĖĘĖĖ": 851,
      "ĔĚ": 852,
      "Ė*": 853,
      "ĖĕĕĖĕĖĖ": 854,
      "ĖĕĕĖĖĖĖĖ": 855,
      "ĘăĕĕĖĖ": 856,
      "ĖĔĖĖē": 857,
      "ĘĄĕ": 858,
      "Ěć": 859,
      "ĘĕĖĕ": 860,
      "ę#": 861,
      "ĘĕĖĔ": 862,
      "ĖĖĖĖėĖĖĕĖĖĖĖĖ": 863,
      "ĚĈ": 864,
      "ĒĕĖ": 865,
      "ĔĖĖĖĖĖĕĖĖ": 866,
      "ėĎĖĕĖĖĖĖĖĖĖĖĖĖĖ": 867,
      "Ĕĕĕ": 868,
      "ėĖğ": 869,
      "ėĕĖĔ": 870,
      "Ēă": 871,
      "ėăĖĕĖĖĕĖĖĖĖĖĖĖĖ": 872,
      "ėāĖĕĖĖĖĖĖĖĖĖĕĖĖ": 873,
      "ĖĖĖĖėĖĖĖ": 874,
      "ėĂĕ": 875,
      "ĘĖĕĖĖĖ": 876,
      "ėėĖĖėĖĖ": 877,
      "ĖĕĕĖĖ": 878,
      "ĖĔĖĖĖĖĖĕĖĖĕĖĖ": 879,
      "ĐĖĖĖĖĖĖĖĖĖĖĖĖ": 880,
      "ėĂĖĕĖĖĕĖĖĖĖĖĖĖĖ": 881,
      "ĔĖĘĖĖ": 882,
      "ĖĖĖĖĕĖĖėĖĖ": 883,
      "ĘĖėĖĖ": 884,
      "ėāĖĕĖĖĖĖĖĕĖĖĖĖĖ": 885,
      "ĘĖėėĖĖ": 886,
      "ĖĖĖĖĖĕĖĖĔĖĖ": 887,
      "ęĖě": 888,
      "ĖėĖĖĖĖĖĖĖĖ": 889,
      "ĘĖď": 890,
      "ĒĀ": 891,
      "ĖĔĖĖĖĖĖėĖĖėĖĖ": 892,
      "ėāĖĕĖĖĕĖĖĕĖĖĖĖĖ": 893,
      "ĒĂ": 894,
      "ĔĕĖĕ": 895,
      "ĖĔĖĖĖĖĖĖĖĖ": 896,
      "ĖĖĕĖĖĖĖ": 897,
      "ęăĕĕ": 898,
      "ĖĕĖĖēĖĖ": 899,
      "Ĕđ": 900,
      "ĔĖĕĖĖĖ": 901,
      "ĖĖĕĖĖĔĖĖ": 902,
      "ĕĖĖĕĖė": 903,
      "ėėĖĔ": 904,
      "ĕ#": 905,
      "ėĖĖĖĖĖĕ": 906,
      "ėĖėėĖė": 907,
      "ę$": 908,
      "ĘĖĖėĖĖĘĖĖ": 909,
      "ĝā": 910,
      "ĖĕĖĖĕĖĖĕĖĖĔĖĖ": 911,
      "ėĖĖĖĖĖĖĖėĖĖ": 912,
      "ĘĖĖĖĖĖĖĖĖĖĖĖĖ": 913,
      "ėāĖĕĖĖĖĖĖĖĖĖėĖĖ": 914,
      "ėĖėĖĖėĖĖĖĖĖ": 915,
      "ĖĕėĖĖĖĖĖĖĖėĖĖ": 916,
      "ĔĖĖĕĖĖĕĖĖĕĖĖ": 917,
      "ėĄĖĖĖĖĖĖĖĖĖĖĖĖĖ": 918,
      "ėĖĖėĖĕ": 919,
      "ĘĖĖėĖĖĖĖĖĖĖĖ": 920,
      "ĘĖĞ": 921,
      "ĖĖĖĖĕĖĖĕĖĖėĖĖ": 922,
      "ĚėĖ": 923,
      "ĖĖĖĖĖĕĖė": 924,
      "ĔĖĞ": 925,
      "ĔĖĖĖĖė": 926,
      "ĜĖĕ": 927,
      "ĚĖĖęĖĖ": 928,
      "ĖėĖĖęĖĖ": 929,
      "ĖĕėĖĕĖĖĕĖĖĖĖĖ": 930,
      "ĖėĖĖĖĖĖĖĖĖėĖĖ": 931,
      "ėăėĕ": 932,
      "ĔĖĖĖĖĖėĖĖ": 933,
      "ĖĔĖĖĔĖĖĕĖĖĕĖĖ": 934,
      "ėĖĕĖĖĖĖĖ": 935,
      "ĕĖğ": 936,
      "ėďĖĕĖĖĖĖĖĖĖĖĖĖĖ": 937,
      "ĖĐĖĖ": 938,
      "ėăĖĔĖĖ": 939,
      "ęĄĕ": 940,
      "ĚĒ": 941,
      "ēĘ": 942,
      "ēĒ": 943,
      "ėęĖĖ": 944,
      "ėĖėĖĖĖĖĖ": 945,
      "ĘĖĖĘĖĖĘĖĖ": 946,
      "ĐĖĕ": 947,
      "ĔĖėĖĖĖ": 948,
      "ĔėĖĕ": 949,
      "ĕăė": 950,
      "ēĖĜ": 951,
      "ĘĀĕ": 952,
      "ēĖď": 953,
      "ėăĖĖĖ": 954,
      "ę%": 955,
      "ėĖĒĖĖ": 956,
      "ĕĖĚĖĖ": 957,
      "ĕĕĖĖĕĖĖĖĖĖĖĖĖ": 958,
      "ĕ$": 959,
      "ĘăĖĕĖĖĖĖĖĖĖĖĖĖĖ": 960,
      "ęĂĕ": 961,
      "ĜĖė": 962,
      "ĔėĖĖ": 963,
      "ĖĕĖĖē": 964,
      "ĖĕĖĖĕĖĖĔĖĖĖĖĖ": 965,
      "ėėĖėĖĖ": 966,
      ",ď": 967,
      "ę&": 968,
      "Ěđ": 969,
      "ėăĕĕĖĖ": 970,
      "ėĖėĘĖĖ": 971,
      "ęĖđ": 972,
      "ĖĕĖĖĖĖĖĖĖĖĖ": 973,
      "ĖĕėĖĖĖĖĖĖĖĕĖĖ": 974,
      "ęăĕĖĖ": 975,
      "ĖĀĕ": 976,
      "ĖėĖĖėĖĖĖĖĖėĖĖ": 977,
      "ęĖĜ": 978,
      "ĖĖĕĖėĖĖ": 979,
      "ĖĔĖĖĕĖĖĖĖĖ": 980,
      "ęĖĖĖ": 981,
      "ĖăėĕĖĖ": 982,
      "ĔĖėĕĖė": 983,
      "ĖēĖĖēĖĖ": 984,
      "ĖĕĖĖĔĖĖĕĖĖĕĖĖ": 985,
      "ĖĖĖĖėĖĖĘĖĖėĖĖ": 986,
      "ėĖĖĖĖĕĖĖ": 987,
      "ĖėĖĖĖĖĖĖĖĖĕĖĖ": 988,
      "ėĖĖĖĖĖĖĖĖėĖĖ": 989,
      "ėĘĖė": 990,
      "ėĖĚĖĖ": 991,
      "ĖĕĖĕĕ": 992,
      "ĖĖĕĖĖĕĖĖĕĖĖ": 993,
      "ĖĖĖĖĕĖĖėĖĖėĖĖ": 994,
      "ĔĖėĖĖĕ": 995,
      "ĖĒĖė": 996,
      "ėăĖĕĖĖĖĖ": 997,
      "ĖĕĖĖĔĖĖĖĖĖĖĖĖ": 998,
      "ĕ%": 999,
      "ĚĎ": 1000,
      "Ěě": 1001,
      "ėĐĖĕĖĖĖĖĖĖĖĖĖĖĖ": 1002,
      "ĘĄĖĖĖĖĖĖĖĖĖĖĖĖĖ": 1003,
      "ėĖĕĘĖĖ": 1004,
      "ĖĔĖĖĕĖĖėĖĖĖĖĖ": 1005,
      "ĘăĖĖ": 1006,
      "ĔĖėĔĖĖ": 1007,
      "ĖĕėĖĖĖĖĕĖĖĖĖĖ": 1008,
      "ėĖĖĔĖĖ": 1009,
      "Ěď": 1010,
      "ĖĖĖĖĕĖė": 1011,
      "ęăĕĖĖĖ": 1012,
      "ĖĕĕĖĖĖĖėĖĖĖĖĖ": 1013,
      "ĖĖĖĖĖĖĕĖĖ": 1014,
      "ĘĖĖĘ": 1015,
      "ēĄ": 1016,
      "ĖĔĖĖĕĖĖĕĖĖėĖĖ": 1017,
      "ėĕĖĘ": 1018,
      "ĖăĘ": 1019,
      "ĔĐ": 1020,
      "Ĕě": 1021,
      "ĖĕĖĖėĖĖĕĖĖĖĖĖ": 1022,
      "ĖĕĖĖĖĖĖĖ": 1023
    },
    "merges": [
      [
        "Ė",
        "Ė"
      ],
      [
        "ĖĖ",
        "ĖĖ"
      ],
      [
        "Ė",
        "ĕ"
      ],
      [
        "ĖĖĖĖ",
        "ĖĖĖĖ"
      ],
      [
        "ė",
        "ĖĖ"
      ],
      [
        "ĖĖ",
        "Ė"
      ],
      [
        "ĖĖ",
        "ĕ"
      ],
      [
        "Ėĕ",
        "ĖĖĖĖĖĖĖĖ"
      ],
      [
        "ĖĕĖĖĖĖĖĖĖĖ",
        "ĖĖĖ"
      ],
      [
        "ĖĖĖĖ",
        "Ė"
      ],
      [
        "ė",
        "Ā"
      ],
      [
        "ėĀ",
        "ĖĕĖĖĖĖĖĖĖĖĖĖĖ"
      ],
      [
        "Ė",
        "ė"
      ],
      [
        "Ė",
        "Ĕ"
      ],
      [
        "ĖĖĕ",
        "ĖĖ"
      ],
      [
        "Ę",
        "ĖĖ"
      ],
      [
        "Ėĕ",
        "ĖĖ"
      ],
      [
        "ĕ",
        "Ė"
      ],
      [
        "ė",
        "Ė"
      ],
      [
        "ĕ",
        "ĖĖ"
      ],
      [
        "Ĕ",
        "ĖĖ"
      ],
      [
        "ėĖĖ",
        "ėĖĖ"
      ],
      [
        "Ėĕ",
        "ĖĖĕ"
      ],
      [
        "ė",
        "ĖĖĖĖĖ"
      ],
      [
        "ė",
        "ă"
      ],
      [
        "ē",
        "ĖĖ"
      ],
      [
        "Ėĕ",
        "ĖĖĖĖĖ"
      ],
      [
        "ĖĖĖĖĖĖĖĖ",
        "ĖĖĖĖĖ"
      ],
      [
        "Ę",
        "ă"
      ],
      [
        "Ĕ",
        "Ė"
      ],
      [
        "ė",
        "ĖĖĖĖ"
      ],
      [
        "ė",
        "Ėĕ"
      ],
      [
        "ę",
        "ĖĖ"
      ],
      [
        "ĕ",
        "ĕ"
      ],
      [
        "Ė",
        "ėĖĖ"
      ],
      [
        "ė",
        "ā"
      ],
      [
        "ė",
        "ĖĖĖĖĖĖĖĖ"
      ],
      [
        "ė",
        "ĕ"
      ],
      [
        "Ėĕ",
        "ĕ"
      ],
      [
        "ė",
        "Ėė"
      ],
      [
        "ĖĖĖĖ",
        "ĕ"
      ],
      [
        "ĖĖĕ",
        "ĖĖĖĖĖ"
      ],
      [
        "Ę",
        "Ė"
      ],
      [
        "Ė",
        "ă"
      ],
      [
        "ĖĔ",
        "ĖĖ"
      ],
      [
        "ĖĖĖĖ",
        "ĖĖ"
      ],
      [
        "ė",
        "Ă"
      ],
      [
        "Ėĕ",
        "ĖĖĖĖ"
      ],
      [
        "Ė",
        "Ę"
      ],
      [
        "Ę",
        "Ā"
      ],
      [
        "Ė",
        "ē"
      ],
      [
        "ĖĖĖĖ",
        "ĖĖĖ"
      ],
      [
        "Ėĕ",
        "ĖĖĕĖĖ"
      ],
      [
        "ĖĖĕ",
        "ĖĖĕĖĖ"
      ],
      [
        "ĖĖĖĖĖĖĖĖ",
        "ĖĖ"
      ],
      [
        "Ĕ",
        "Ėė"
      ],
      [
        "ė",
        "Ą"
      ],
      [
        "Ē",
        "ĖĖ"
      ],
      [
        "ėĖĖ",
        "ĕ"
      ],
      [
        "ĖĖĖĖ",
        "ĖĕĖĖ"
      ],
      [
        "ę",
        "ă"
      ],
      [
        "Ę",
        "ā"
      ],
      [
        "ĖĕĖĖĕ",
        "ĖĖĖĖĖĖĖĖ"
      ],
      [
        "ėĖĖ",
        "ĕĖĖ"
      ],
      [
        "Ę",
        "Ă"
      ],
      [
        "Ě",
        "ĖĖ"
      ],
      [
        "ĕ",
        "Ėė"
      ],
      [
        "ĖĖĖĖĖĖĖĖ",
        "ĖĖĖ"
      ],
      [
        "Ė",
        "Ā"
      ],
      [
        "Ĕ",
        "ĖĖĕĖĖ"
      ],
      [
        "ē",
        "Ė"
      ],
      [
        "Ę",
        "Ėĕ"
      ],
      [
        "ĖĔ",
        "ĖĖĕ"
      ],
      [
        "Ĕ",
        "Ėĕ"
      ],
      [
        "Ę",
        "Ą"
      ],
      [
        "ĖĖĖĖĖĖĖĖ",
        "ĖĖĖĖ"
      ],
      [
        "ĖĖĖĖĖ",
        "ėĖĖ"
      ],
      [
        "ĘĖĖ",
        "ėĖĖ"
      ],
      [
        "Ĕ",
        "ĖĖĕ"
      ],
      [
        "Ę",
        "Ėė"
      ],
      [
        "ę",
        "Ė"
      ],
      [
        "ė",
        "ė"
      ],
      [
        "ĕ",
        "Ėĕ"
      ],
      [
        "Ė",
        "Ă"
      ],
      [
        "Ĕ",
        "ĖĖĖĖĖ"
      ],
      [
        "Ė",
        "ā"
      ],
      [
        "ĕ",
        "ă"
      ],
      [
        "ė",
        "ĖĔ"
      ],
      [
        "ĖĖĖĖ",
        "ėĖĖ"
      ],
      [
        "Ę",
        "ĕ"
      ],
      [
        "Ĕ",
        "ĕ"
      ],
      [
        "Ė",
        "Ą"
      ],
      [
        "đ",
        "ĖĖ"
      ],
      [
        "Ė",
        "ę"
      ],
      [
        "ĖĕĖĖ",
        "ėĖĖ"
      ],
      [
        "Ė",
        "Ē"
      ],
      [
        "ē",
        "Ėė"
      ],
      [
        "Ėĕ",
        "Ėė"
      ],
      [
        "Ę",
        "ĖĖĖĖĖ"
      ],
      [
        "ėĖĖĖĖĖĖĖĖ",
        "ĖĖ"
      ],
      [
        "ĕĖ",
        "ėĖĖ"
      ],
      [
        "ėĖ",
        "ėĖĖ"
      ],
      [
        "ĖĕĖĖĖĖĖĖĖĖ",
        "ĕĖĖ"
      ],
      [
        "ĖĕĖĖĖĖĖĖĖĖ",
        "ėĖĖ"
      ],
      [
        "ĕĖ",
        "Ę"
      ],
      [
        "ę",
        "Ā"
      ],
      [
        "ėĖ",
        "Ę"
      ],
      [
        "ĘĖĖ",
        "ĘĖĖ"
      ],
      [
        "ĖĕĖĖĖĖ",
        "ĖĕĖĖĖĖĖ"
      ],
      [
        "ėĖĖėĖĖ",
        "ėĖĖ"
      ],
      [
        "ĖĕĖĖĕ",
        "ĖĖĕĖĖĖĖĖ"
      ],
      [
        "ĔĖĖ",
        "ĔĖĖ"
      ],
      [
        "ėā",
        "ĖĕĖĖĖĖĖĖĖĖĖĖĖ"
      ],
      [
        "ě",
        "ĖĖ"
      ],
      [
        "ė",
        "ą"
      ],
      [
        "Ė",
        "ēĖĖ"
      ],
      [
        "ĕ",
        "ĖĖĕ"
      ],
      [
        "ė",
        "Ĕ"
      ],
      [
        "ė",
        "Ć"
      ],
      [
        "ĖĖĖĖ",
        "ĕĖĖ"
      ],
      [
        "ę",
        "Ă"
      ],
      [
        "ĖĖĖĖĖĖĖĖĖĖ",
        "ėĖĖ"
      ],
      [
        "Ė",
        "ėĖĖėĖĖ"
      ],
      [
        "ĖĖĖĖ",
        "ė"
      ],
      [
        "Ęă",
        "ĕ"
      ],
      [
        "Ė",
        "ĘĖĖ"
      ],
      [
        "ē",
        "Ėĕ"
      ],
      [
        "Ė",
        "Ě"
      ],
      [
        "ę",
        "Ėĕ"
      ],
      [
        "ĖĕĖĖĖĖĖ",
        "ėĖĖĖĖĖ"
      ],
      [
        "ė",
        "ć"
      ],
      [
        "ę",
        "ā"
      ],
      [
        "ė",
        "Ę"
      ],
      [
        "ė",
        "ĖĕĖĖ"
      ],
      [
        "ĖĖĖĖĖĖĖ",
        "ėĖĖĖĖĖ"
      ],
      [
        "ėĖĖĖĖĖ",
        "ėĖĖ"
      ],
      [
        "ĖĖĖĖĖĖĖĖ",
        "ĖĖĕĖĖ"
      ],
      [
        "ĖĖĖ",
        "ėĖĖ"
      ],
      [
        "Ė",
        "đ"
      ],
      [
        "ĕ",
        "ĖĔ"
      ],
      [
        "ė",
        "Ĉ"
      ],
      [
        "Ě",
        "ă"
      ],
      [
        "ė",
        "ĕĖĖ"
      ],
      [
        "ę",
        "Ą"
      ],
      [
        "ĖĖĕ",
        "Ėė"
      ],
      [
        "ė",
        "ē"
      ],
      [
        "Ė",
        "Đ"
      ],
      [
        "ėĖĖĖĖ",
        "ĕ"
      ],
      [
        "ė",
        "ėĖĖ"
      ],
      [
        "ĕ",
        "Ā"
      ],
      [
        "ė",
        "Ē"
      ],
      [
        "ėĖĖĖĖ",
        "ĖĕĖĖ"
      ],
      [
        "ę",
        "Ėė"
      ],
      [
        "ĕĖ",
        "ē"
      ],
      [
        "ĕ",
        "Ĕ"
      ],
      [
        "ėĖĖĖĖ",
        "ĖĖ"
      ],
      [
        "Ėĕ",
        "Ėĕ"
      ],
      [
        "ĖĕĖĖĕ",
        "ĖĖĕĖĖ"
      ],
      [
        "ĖĔ",
        "ĖĖĕĖĖ"
      ],
      [
        "Ėĕĕ",
        "ĖĖĖĖĖĖĖĖĖĖ"
      ],
      [
        "ĖĕĖĖĕ",
        "ĖĖĕĖĖĕĖĖ"
      ],
      [
        "ĖĖĖĖĖĖ",
        "ĖĕĖĖĖĖĖ"
      ],
      [
        "ĕ",
        "ĖĖĖĖ"
      ],
      [
        "Ė",
        "ě"
      ],
      [
        "ė",
        "ĕĖ"
      ],
      [
        "ĖĖĖĖ",
        "ėĖĖĖĖĖĖĖĖ"
      ],
      [
        "ė",
        "Đ"
      ],
      [
        "ĖĕĖĖĕ",
        "ĖĖĖĖĖ"
      ],
      [
        "ėĖ",
        "ē"
      ],
      [
        "ė",
        "Ď"
      ],
      [
        "ĔĖ",
        "Ę"
      ],
      [
        "ė",
        "ď"
      ],
      [
        "ėĖĖ",
        "ĘĖĖ"
      ],
      [
        "ė",
        "đ"
      ],
      [
        "ĕ",
        "ā"
      ],
      [
        "ĕ",
        "Ă"
      ],
      [
        "ėĖ",
        "ę"
      ],
      [
        "Ė",
        "Ĝ"
      ],
      [
        "ĕĖ",
        "ę"
      ],
      [
        "ĖĖĖĖĕ",
        "ĖĖĖĖĖĖĖĖ"
      ],
      [
        "Đ",
        "ĖĖ"
      ],
      [
        "Ė",
        "ď"
      ],
      [
        "ĖĕĖĖĖĖ",
        "ĖĕĖĖĕĖĖ"
      ],
      [
        "ė",
        "ę"
      ],
      [
        "ĖĕĖĖĕ",
        "ĖĖĖĖĖĕĖĖ"
      ],
      [
        "ĖĔ",
        "ĖĖĖĖĖ"
      ],
      [
        "Ėė",
        "ĖĖĖĖĖ"
      ],
      [
        "ĖĖĖĖĖĖĖĖ",
        "ėĖĖ"
      ],
      [
        "ė",
        "ėĖ"
      ],
      [
        "ĕ",
        "ē"
      ],
      [
        "Ėĕ",
        "ĖĖĖ"
      ],
      [
        "ė",
        "Ě"
      ],
      [
        "ĕ",
        "ĕĖĖ"
      ],
      [
        "Ĝ",
        "ĖĖ"
      ],
      [
        "Ĕ",
        "ĖĔ"
      ],
      [
        "Ę",
        "ą"
      ],
      [
        "ĔĖĖ",
        "ėĖĖ"
      ],
      [
        "Ę",
        "ĖĖĕĖĖ"
      ],
      [
        "ĖĖĖĖĖĖĖĖ",
        "ĕĖĖ"
      ],
      [
        "ĖĕĖĖ",
        "Ĕ"
      ],
      [
        "ĖėĖĖ",
        "ĕ"
      ],
      [
        "ĖĕĖĖĖĖĖ",
        "ėĖĖėĖĖ"
      ],
      [
        "Ę",
        "Ć"
      ],
      [
        "ĖĖĖĖ",
        "ĖĕĖĖĖĖĖ"
      ],
      [
        "Ė",
        "Ď"
      ],
      [
        "ĖĕĖĖ",
        "ĔĖĖ"
      ],
      [
        "Ę",
        "ĖĔ"
      ],
      [
        "Ėĕ",
        "ėĖĖĖĖĖĖĖĖĖĖ"
      ],
      [
        "ĖĖĖĖĖĖĖ",
        "ėĖĖėĖĖ"
      ],
      [
        "ĕ",
        "ĖĖĖ"
      ],
      [
        "Ė",
        "ĝ"
      ],
      [
        "ĖĕĖĖĕ",
        "ĖĖĖĖĖėĖĖ"
      ],
      [
        "Ē",
        "Ėė"
      ],
      [
        "Ę",
        "ć"
      ],
      [
        "ėĂ",
        "ĖĕĖĖĖĖĖĖĖĖĖĖĖ"
      ],
      [
        "ĕ",
        "Ą"
      ],
      [
        "ėĕ",
        "Ėė"
      ],
      [
        "ĘĖ",
        "Ę"
      ],
      [
        "ĖĔĖĖ",
        "Ĕ"
      ],
      [
        "Ę",
        "ĖĖĕ"
      ],
      [
        "ĖĔ",
        "Ėė"
      ],
      [
        "ė",
        "ě"
      ],
      [
        "Ę",
        "Ĉ"
      ],
      [
        "Ėĕ",
        "ė"
      ],
      [
        "Ĕ",
        "ă"
      ],
      [
        "Ę",
        "Ď"
      ],
      [
        "ĖĖĕ",
        "ĖĖĖĖĖĖĖĖ"
      ],
      [
        "ē",
        "ĖĖĕĖĖ"
      ],
      [
        "Ėĕĕ",
        "Ėė"
      ],
      [
        "Ę",
        "ď"
      ],
      [
        "ĖĔ",
        "ĕ"
      ],
      [
        "ĕĖ",
        "Ē"
      ],
      [
        "Ęă",
        "ĕĕ"
      ],
      [
        "ĖĔĖĖĕ",
        "ĖĖĖĖĖĖĖĖ"
      ],
      [
        "ĖĖĖĖėĖĖ",
        "ėĖĖĖĖĖ"
      ],
      [
        "Ę",
        "Ē"
      ],
      [
        "Ě",
        "ā"
      ],
      [
        "Ėĕ",
        "Ė"
      ],
      [
        "Ę",
        "ē"
      ],
      [
        "Ę",
        "đ"
      ],
      [
        "ĕ",
        "ė"
      ],
      [
        "Ę",
        "Đ"
      ],
      [
        "ĖĖĕ",
        "Ėĕ"
      ],
      [
        "Ě",
        "Ă"
      ],
      [
        "Ę",
        "Ĕ"
      ],
      [
        "ĕĖ",
        "Ě"
      ],
      [
        "ėĖ",
        "Ě"
      ],
      [
        "Ė",
        "Ğ"
      ],
      [
        "ėă",
        "ĖĕĖĖĖĖĖĖĖĖĖĖĖ"
      ],
      [
        "Ě",
        "Ā"
      ],
      [
        "ė",
        "Ĝ"
      ],
      [
        "ĔĖ",
        "ėĖĖ"
      ],
      [
        "ė",
        "ėĖĕ"
      ],
      [
        "ėĖĖĕ",
        "ĖĖĖĖĖ"
      ],
      [
        "ęă",
        "ĕ"
      ],
      [
        "Ę",
        "Ę"
      ],
      [
        "ĖĖĖĖĖĖ",
        "ĖĕĖĖĕĖĖ"
      ],
      [
        "ėă",
        "ĕ"
      ],
      [
        "ėĖ",
        "Ē"
      ],
      [
        "ēĖĖ",
        "ĔĖĖ"
      ],
      [
        "ęĖĖ",
        "ėĖĖ"
      ],
      [
        "ē",
        "ĕ"
      ],
      [
        "ĕĖĖ",
        "ėĖĖ"
      ],
      [
        "Ė",
        "ĒĖĖ"
      ],
      [
        "Ė",
        "ą"
      ],
      [
        "ĖĖĖĖĖĖĖ",
        "ėĖĖ"
      ],
      [
        "ĖĖĕ",
        "ĖĖĖĖĖĖĖĖĖĖ"
      ],
      [
        "Ė",
        "Ć"
      ],
      [
        "ĕĕ",
        "Ėė"
      ],
      [
        "ęĖĖ",
        "ĘĖĖ"
      ],
      [
        "Ė",
        "ć"
      ],
      [
        "ė",
        "ĝ"
      ],
      [
        "Ę",
        "Ě"
      ],
      [
        "ĖĖĖĖ",
        "ėĖĖėĖĖ"
      ],
      [
        "Ė",
        "Ĉ"
      ],
      [
        "ĖĔ",
        "ĖĖĖĖĖĖĖĖĖĖĖ"
      ],
      [
        "ėĀ",
        "ĖĖĖĖĖĖĖĖĖĖĖĖĖ"
      ],
      [
        "Ę",
        "ĕĖ"
      ],
      [
        "ĔĖ",
        "ē"
      ],
      [
        "Ėĕ",
        "ĖėĖĖ"
      ],
      [
        "ĖĖĕĖĖĖĖĖ",
        "ėĖĖ"
      ],
      [
        "ĔĖ",
        "ę"
      ],
      [
        "ĖĖĖĖ",
        "ĖĕĖĖĕĖĖ"
      ],
      [
        "Ę",
        "ę"
      ],
      [
        "ĖĕĖĖĖĖĖ",
        "ėĖĖ"
      ],
      [
        "Ėĕ",
        "ėĖĖĖĖ"
      ],
      [
        "Ĕ",
        "ā"
      ],
      [
        "ď",
        "ĖĖ"
      ],
      [
        "ĖĕĖĖ",
        "ėĖĖĖĖĖĖĖĖ"
      ],
      [
        "ėĖĖĖĖĖĖĖĖ",
        "ĖĖĖ"
      ],
      [
        "ėā",
        "ĖĖĖĖĖĖĖĖĖĖĖĖĖ"
      ],
      [
        "ĕ",
        "ĖĖĖĖĖ"
      ],
      [
        "Ė",
        "ğ"
      ],
      [
        "ĝ",
        "ĖĖ"
      ],
      [
        "ĖĔĖĖ",
        "ĔĖĖ"
      ],
      [
        "ėĖ",
        "ĘĖĖ"
      ],
      [
        "ĖĔĖĖĕ",
        "ĖĖĕĖĖĖĖĖ"
      ],
      [
        "Ĕ",
        "ĕĖ"
      ],
      [
        "ė",
        "Ğ"
      ],
      [
        "ĖĖĖĖĕ",
        "ĖĖĖĖĖ"
      ],
      [
        "ĖĖĕĖĖ",
        "ėĖĖ"
      ],
      [
        "Ėė",
        "Ėė"
      ],
      [
        "Ē",
        "Ėĕ"
      ],
      [
        "Ę",
        "ě"
      ],
      [
        "ĖĖĖĖĖĖ",
        "ĖĕĖĖ"
      ],
      [
        "ĖĖĖĖ",
        "ėĖĖėĖĖėĖĖ"
      ],
      [
        "ĖĖĖĖ",
        "ĘĖĖ"
      ],
      [
        "Ě",
        "Ėĕ"
      ],
      [
        "ę",
        "ĕ"
      ],
      [
        "ĖĖĖĖ",
        "Ėĕ"
      ],
      [
        "ė",
        "ĖĔĖĖ"
      ],
      [
        "ė",
        "ėĖė"
      ],
      [
        "Ĕ",
        "Ā"
      ],
      [
        "Ė",
        "ęĖĖ"
      ],
      [
        "ĖĖĖĖĕ",
        "ĖĖĕĖĖĖĖĖ"
      ],
      [
        "Ę",
        "ėĖ"
      ],
      [
        "Ėĕĕ",
        "Ėĕ"
      ],
      [
        "Ėė",
        "Ėĕ"
      ],
      [
        "Ę",
        "Ĝ"
      ],
      [
        "ĘĖ",
        "ē"
      ],
      [
        "ĕĖ",
        "đ"
      ],
      [
        "ėĖĖĕ",
        "ĖĖĕĖĖ"
      ],
      [
        "ĖĖĖĖ",
        "ėĖĖĖĖĖ"
      ],
      [
        "ĕĖ",
        "ĘĖĖ"
      ],
      [
        "ĖėĖĖ",
        "ĘĖĖ"
      ],
      [
        "ĕ",
        "Ē"
      ],
      [
        "Ĕ",
        "Ă"
      ],
      [
        "Ě",
        "Ėė"
      ],
      [
        "đ",
        "ĖĖĖĖĖĖĖĖĖĖĖĖ"
      ],
      [
        "ėĖĕ",
        "ĖĖĖ"
      ],
      [
        "ė",
        "ğ"
      ],
      [
        "ĖĖ",
        "Ėĕ"
      ],
      [
        "Ě",
        "Ą"
      ],
      [
        "ėĖ",
        "ě"
      ],
      [
        "ė",
        ","
      ],
      [
        "ėĄ",
        "ĖĕĖĖĖĖĖĖĖĖĖĖĖ"
      ],
      [
        "ē",
        "ĖĖĖĖĖ"
      ],
      [
        "Ę",
        "ĝ"
      ],
      [
        "ě",
        "ă"
      ],
      [
        "ĘĖ",
        "ę"
      ],
      [
        "ē",
        "ĖĘ"
      ],
      [
        "ė",
        "ĔĖĖ"
      ],
      [
        "Ę",
        "ĖĖĖĖĖĖĖĖ"
      ],
      [
        "ĕĖ",
        "ě"
      ],
      [
        "ėĖ",
        "đ"
      ],
      [
        "Ę",
        "Ğ"
      ],
      [
        "ėĕ",
        "Ėĕ"
      ],
      [
        "Ė",
        "!"
      ],
      [
        "ĕ",
        "ĖĕĖĖ"
      ],
      [
        "Ė",
        ","
      ],
      [
        "ĖėĖĖ",
        "Ė"
      ],
      [
        "ė",
        "ĘĖĖ"
      ],
      [
        "ĔĖ",
        "Ē"
      ],
      [
        "Ė",
        "\""
      ],
      [
        "ĕĕ",
        "ĖĖĖĖĖĖĖĖĖĖĖ"
      ],
      [
        "ĖĖ",
        "ėĖĖĖĖĖĖĖĖĖĖ"
      ],
      [
        "Ę",
        "ĖĖĖ"
      ],
      [
        "ė",
        "!"
      ],
      [
        "ĕ",
        "ĖĖĕĖĖ"
      ],
      [
        "ĖĖĕ",
        "ĖĖĕĖĖĖĖĖ"
      ],
      [
        "ě",
        "ā"
      ],
      [
        "ĕ",
        "ę"
      ],
      [
        "ĖĕĖĖĖĖ",
        "ĖĕĖĖ"
      ],
      [
        "ē",
        "ĖĔ"
      ],
      [
        "ĖĖĖĖ",
        "ėĖĖĖĖĖėĖĖ"
      ],
      [
        "Ę",
        "ğ"
      ],
      [
        "Ę",
        ","
      ],
      [
        "Ě",
        "ĖĖĖĖĖĖĖĖĖĖĖĖ"
      ],
      [
        "ĖĔĖĖĕ",
        "ĖĖĕĖĖĕĖĖ"
      ],
      [
        "ė",
        "ėĖĖĖĖ"
      ],
      [
        "ėĖĖėĖĖ",
        "ĕĖĖ"
      ],
      [
        "ĖĖĖĖ",
        "Ĕ"
      ],
      [
        "ĖėĖĖ",
        "ĕĖĖ"
      ],
      [
        "Ĕ",
        "Ĕ"
      ],
      [
        "ĘĀ",
        "ĖĖĖĖĖĖĖĖĖĖĖĖĖ"
      ],
      [
        "ĔĖ",
        "Ě"
      ],
      [
        "ę",
        "ĖĖĖĖĖ"
      ],
      [
        "ĔĖĖ",
        "ēĖĖ"
      ],
      [
        "ĕĖ",
        "Đ"
      ],
      [
        "ĖĖĖĖĕ",
        "ĖĖĕĖĖ"
      ],
      [
        "Ĕ",
        "ėĖ"
      ],
      [
        "ĕ",
        "đ"
      ],
      [
        "Ę",
        "!"
      ],
      [
        "Ę",
        "ė"
      ],
      [
        "ėĖĕ",
        "ėĖĖ"
      ],
      [
        "ĖĖĖĖ",
        "ĖĖĕ"
      ],
      [
        "Ėė",
        "ĖĖĖĖĖĖĖĖĖĖĖ"
      ],
      [
        "ĕ",
        "Ę"
      ],
      [
        "ėĀ",
        "ĖĕĖĖĕĖĖĖĖĖĖĖĖ"
      ],
      [
        "ĖĖĖĖĖĖ",
        "Ėĕ"
      ],
      [
        "ė",
        "\""
      ],
      [
        "ēĖĖ",
        "ēĖĖ"
      ],
      [
        "ĖĖĖĖ",
        "ėĖĖĖĖĖĕĖĖ"
      ],
      [
        "ę",
        "ĖĔ"
      ],
      [
        "Ē",
        "Ė"
      ],
      [
        "ėĖ",
        "Ĝ"
      ],
      [
        "Ď",
        "ĖĖ"
      ],
      [
        "Ęā",
        "ĖĖĖĖĖĖĖĖĖĖĖĖĖ"
      ],
      [
        "ėą",
        "ĖĕĖĖĖĖĖĖĖĖĖĖĖ"
      ],
      [
        "ē",
        "ĖĖĕ"
      ],
      [
        "ĘĖ",
        "Ě"
      ],
      [
        "ĖĖĖĖĕ",
        "ĖĖĕĖĖĕĖĖ"
      ],
      [
        "ėĖĖĖĖĖĖ",
        "ĖĕĖĖ"
      ],
      [
        "ĕĖ",
        "Ĝ"
      ],
      [
        "ĕ",
        "ĔĖĖ"
      ],
      [
        "Ğ",
        "ĖĖ"
      ],
      [
        "ĖĔĖĖ",
        "ėĖĖ"
      ],
      [
        "ĖĕĖĖėĖĖ",
        "ėĖĖĖĖĖ"
      ],
      [
        "đ",
        "Ėė"
      ],
      [
        "ĖĖĖ",
        "ė"
      ],
      [
        "ĖĕĖĖ",
        "ė"
      ],
      [
        "ėĖĖĖĖ",
        "ė"
      ],
      [
        "ėĖė",
        "ėĖĖ"
      ],
      [
        "ĖĖĖĖĕ",
        "ĖĖĖĖĖĕĖĖ"
      ],
      [
        "ĕ",
        "ĖĖĖĖĖĖĖĖ"
      ],
      [
        "Ėă",
        "ėĕ"
      ],
      [
        "ėĖĖĖĖĖĖĖĖ",
        "ĖĖĖĖ"
      ],
      [
        "ĖĕĖĖĕĖĖ",
        "ėĖĖĖĖĖ"
      ],
      [
        "ĔĖĖĕ",
        "Ėė"
      ],
      [
        "ĖĖ",
        "ėĖĖĖĖ"
      ],
      [
        "ĕ",
        "ėĖĖ"
      ],
      [
        "ėĖĖėĖĖ",
        "ėĖĖĖĖĖ"
      ],
      [
        "ĕ",
        "Ě"
      ],
      [
        "ě",
        "Ă"
      ],
      [
        "ĖĖĖĖĖĖĖĖ",
        "Ė"
      ],
      [
        "ĔĖ",
        "đ"
      ],
      [
        "ėă",
        "ėĖĖ"
      ],
      [
        "Ė",
        "#"
      ],
      [
        "ĘĖĖ",
        "ęĖĖ"
      ],
      [
        "ē",
        "ā"
      ],
      [
        "ėă",
        "ĖĕĖĖ"
      ],
      [
        "ėĖ",
        "Đ"
      ],
      [
        "ėā",
        "ĖĕĖĖĕĖĖĖĖĖĖĖĖ"
      ],
      [
        "ę",
        "ĖĘ"
      ],
      [
        "Ĕ",
        "ĖĖĕĖĖĖĖĖ"
      ],
      [
        "ĘĖ",
        "Ē"
      ],
      [
        "ĕĕ",
        "ĖĖĕ"
      ],
      [
        "ĖĖĖĖĕ",
        "ĖĖĖĖĖėĖĖ"
      ],
      [
        "Ėē",
        "Ėė"
      ],
      [
        "Ĕ",
        "ĖĖĕĖĖĕĖĖ"
      ],
      [
        "ĕĕ",
        "ĖĖĖĖĖ"
      ],
      [
        "ė",
        "#"
      ],
      [
        "ė",
        "ĔĖė"
      ],
      [
        "ę",
        "ą"
      ],
      [
        "Ē",
        "ĖĖĖĖĖĖĖĖĖĖĖĖ"
      ],
      [
        "ĕĖ",
        "ēĖĖ"
      ],
      [
        "ě",
        "Ā"
      ],
      [
        "ĖĖĖĖ",
        "Ę"
      ],
      [
        "ę",
        "Ć"
      ],
      [
        "ėĖĖĖĖĕ",
        "ĖĖĖĖĖ"
      ],
      [
        "Ę",
        "\""
      ],
      [
        "ĕ",
        ","
      ],
      [
        "ėĖĖĕĖĖ",
        "ėĖĖ"
      ],
      [
        "ĔĖĖĕ",
        "ĖĖĖĖĖĖĖĖ"
      ],
      [
        "ĕ",
        "ĖĖĖĖĖĖĖĖĖĖĖĖ"
      ],
      [
        "ĖĔ",
        "ĖĖĕĖĖĕĖĖ"
      ],
      [
        "ē",
        "ă"
      ],
      [
        "Ĕ",
        "ĖĖĖ"
      ],
      [
        "ę",
        "Ę"
      ],
      [
        "ę",
        "ć"
      ],
      [
        "ėĖĖĕ",
        "Ėė"
      ],
      [
        "ĕ",
        "ě"
      ],
      [
        "Ėĕĕ",
        "ĖĕĖĖĖĖĖĖĖĖ"
      ],
      [
        "ę",
        "Ĉ"
      ],
      [
        "ĖĕĖĖĕĖĖĕĖĖ",
        "ėĖĖ"
      ],
      [
        "ę",
        "ĕĖ"
      ],
      [
        "ę",
        "Ē"
      ],
      [
        "ĖĕĖĖĕ",
        "Ėė"
      ],
      [
        "ė",
        "$"
      ],
      [
        "ĖĕĖĖĖĖ",
        "ĖĕĖĖėĖĖ"
      ],
      [
        "ĔĖ",
        "ě"
      ],
      [
        "Ĕ",
        "ĖĖĖĖĖĖĖĖ"
      ],
      [
        "ĕ",
        "Đ"
      ],
      [
        "Ĕ",
        "Ą"
      ],
      [
        "Ě",
        "Ė"
      ],
      [
        "ĖĔĖĖĕ",
        "ĖĖĖĖĖĕĖĖ"
      ],
      [
        "ė",
        "ĖĕĖĖĖĖĖĖĖĖ"
      ],
      [
        "ĕĕ",
        "Ėĕ"
      ],
      [
        "ęĖĖ",
        "ęĖĖ"
      ],
      [
        "ĖĕĖĖĕ",
        "ĖĖĕ"
      ],
      [
        "ĔĖĖĕĖĖ",
        "ėĖĖ"
      ],
      [
        "ĖĔ",
        "Ėĕ"
      ],
      [
        "Ę",
        "ėĖĖ"
      ],
      [
        "Ėē",
        "ĖĖĕĖĖ"
      ],
      [
        "ĖĖĖĖĖĕĖĖ",
        "ėĖĖ"
      ],
      [
        "ę",
        "ėĖ"
      ],
      [
        "Ę",
        "#"
      ],
      [
        "ĕĖ",
        "ď"
      ],
      [
        "ėĆ",
        "ĖĕĖĖĖĖĖĖĖĖĖĖĖ"
      ],
      [
        "Ėă",
        "ėĖĖ"
      ],
      [
        "ėĖėĖĖ",
        "Ė"
      ],
      [
        "ĕĖĖ",
        "ĔĖĖ"
      ],
      [
        "ĖĕĖĖ",
        "ĘĖĖ"
      ],
      [
        "ę",
        "Ĕ"
      ],
      [
        "ę",
        "Ě"
      ],
      [
        "Ē",
        "ĕ"
      ],
      [
        "ę",
        "ě"
      ],
      [
        "Ė",
        "$"
      ],
      [
        "ĖėĖĖ",
        "ėĖĖĖĖĖĖĖĖ"
      ],
      [
        "ĘĖ",
        "ě"
      ],
      [
        "ę",
        "Đ"
      ],
      [
        "ĕ",
        "Ĝ"
      ],
      [
        "ėĕ",
        "ĖĖĕ"
      ],
      [
        "ĔĖ",
        "Đ"
      ],
      [
        "ę",
        ","
      ],
      [
        "ę",
        "đ"
      ],
      [
        "ėĕ",
        "ĖĖĖĖĖĖĖĖĖĖĖ"
      ],
      [
        "ė",
        "%"
      ],
      [
        "ėĖ",
        "ĝ"
      ],
      [
        "ē",
        "ĕĖ"
      ],
      [
        "ē",
        "Ėē"
      ],
      [
        "ę",
        "ď"
      ],
      [
        "ē",
        "Ā"
      ],
      [
        "ĖĖĖĖ",
        "ĔĖĖ"
      ],
      [
        "ĖĕĖĖĖĖĖ",
        "ėĖĖĕĖĖ"
      ],
      [
        "ėĖĖĖĖ",
        "ĖĖĖ"
      ],
      [
        "Ę",
        "$"
      ],
      [
        "ę",
        "Ď"
      ],
      [
        "Ėă",
        "ė"
      ],
      [
        "ėĖ",
        "ēĖĖ"
      ],
      [
        "đ",
        "ę"
      ],
      [
        "ėĕ",
        "ĖĖĖĖĖ"
      ],
      [
        "ĔĖĖĕ",
        "Ėĕ"
      ],
      [
        "Ėĕė",
        "ĖĕĖĖĖĖĖĖĖĖ"
      ],
      [
        "ę",
        "Ĝ"
      ],
      [
        "Ėē",
        "ĖĖĕ"
      ],
      [
        "ęă",
        "Ĕ"
      ],
      [
        "Ē",
        "ę"
      ],
      [
        "ĖĕĖĖ",
        "ėĖĖėĖĖėĖĖ"
      ],
      [
        "ė",
        "ĕĕ"
      ],
      [
        "Ė",
        "đĖĖ"
      ],
      [
        "ė",
        "&"
      ],
      [
        "Đ",
        "ę"
      ],
      [
        "ĕĖ",
        "ĝ"
      ],
      [
        "ĖĕĖĖ",
        "ėĖĖĖĖĖ"
      ],
      [
        "Ė",
        "%"
      ],
      [
        "ĕ",
        "ď"
      ],
      [
        "Ę",
        "ĕĖė"
      ],
      [
        "Ęă",
        "Ĕ"
      ],
      [
        "đ",
        "Ėĕ"
      ],
      [
        "ėĖĖėĖĖ",
        "ĘĖĖ"
      ],
      [
        "ē",
        "Ă"
      ],
      [
        "ě",
        "Ėĕ"
      ],
      [
        "ĕ",
        "ĖĔĖĖ"
      ],
      [
        "Ę",
        "&"
      ],
      [
        "ĖĖĖĖĖĖ",
        "ėĖĖ"
      ],
      [
        "ĖĔ",
        "ĖĖĕĖĖĖĖĖėĖĖ"
      ],
      [
        "ğ",
        "ĖĖ"
      ],
      [
        "ĖĖĖĖĖĖĖ",
        "ėĖĖĕĖĖ"
      ],
      [
        "ēĖ",
        "ę"
      ],
      [
        "ĖĔ",
        "ĖĖĖĖĖĕĖĖĖĖĖ"
      ],
      [
        "ėĖĖ",
        "Ėė"
      ],
      [
        "Ėĕ",
        "ĖĖĖĖĕ"
      ],
      [
        "ĕ",
        "ĔĖė"
      ],
      [
        "ėć",
        "ĖĕĖĖĖĖĖĖĖĖĖĖĖ"
      ],
      [
        "ėĖ",
        "ď"
      ],
      [
        "ĖĖĖĖĖĖ",
        "ĖĕĖĖėĖĖ"
      ],
      [
        "ėă",
        "ė"
      ],
      [
        "ēĖĖ",
        "ėĖĖ"
      ],
      [
        "ĖĕĖĖĕĖĖ",
        "ėĖĖėĖĖ"
      ],
      [
        "Ę",
        "%"
      ],
      [
        "Ĝ",
        "ā"
      ],
      [
        "ĘĖ",
        "đ"
      ],
      [
        "ĔĖ",
        "Ĝ"
      ],
      [
        "ě",
        "Ėė"
      ],
      [
        "ę",
        "ē"
      ],
      [
        "ĘĖ",
        "Ĝ"
      ],
      [
        "Ė",
        "&"
      ],
      [
        "ę",
        "ĝ"
      ],
      [
        "ĕĖ",
        "ęĖĖ"
      ],
      [
        "ėĖĖ",
        "ėĖĖĖĖĖĖĖĖ"
      ],
      [
        "ĕ",
        "ĝ"
      ],
      [
        "ēĖ",
        "Ē"
      ],
      [
        "Ė",
        "ĘĖĖĘĖĖ"
      ],
      [
        "ĖĖĖ",
        "ėĖ"
      ],
      [
        "Ė",
        "ĚĖĖ"
      ],
      [
        "ē",
        "Ĕ"
      ],
      [
        "ĖĔ",
        "ĖĖĖĖĖĖĖĖĕĖĖ"
      ],
      [
        "ėĂ",
        "ĖĖĖĖĖĖĖĖĖĖĖĖĖ"
      ],
      [
        "Ę",
        "ĕĖĖ"
      ],
      [
        "ĕ",
        "Ď"
      ],
      [
        "ėĖĖĕ",
        "Ėĕ"
      ],
      [
        "Ė",
        "ĘĖĖėĖĖ"
      ],
      [
        "ĖĘ",
        "Ėĕ"
      ],
      [
        "ę",
        "ĖĖĕ"
      ],
      [
        "ĖĕĖĖĖĖĖĖĖĖ",
        "ĖĖ"
      ],
      [
        "ė",
        "'"
      ],
      [
        "ėĖ",
        "ęĖĖ"
      ],
      [
        "ėĈ",
        "ĖĕĖĖĖĖĖĖĖĖĖĖĖ"
      ],
      [
        "ĔĖė",
        "ĕĖĖ"
      ],
      [
        "ĕ",
        "ć"
      ],
      [
        "ėă",
        "ĖĖĖĖĖĖĖĖĖĖĖĖĖ"
      ],
      [
        "ĕ",
        "ą"
      ],
      [
        "ĖėĖĖėĖĖ",
        "ėĖĖĖĖĖ"
      ],
      [
        "ĖĔ",
        "ĖĖĖĖĖĖĖĖėĖĖ"
      ],
      [
        "ě",
        "ĖĖĖĖĖĖĖĖĖĖĖĖ"
      ],
      [
        "ĔĖĖ",
        "ĘĖĖ"
      ],
      [
        "ė",
        "ĕĖėĖĖ"
      ],
      [
        "Ėė",
        "ĕ"
      ],
      [
        "Ę",
        "ėĖĕ"
      ],
      [
        "ĕ",
        "Ć"
      ],
      [
        "ē",
        "ę"
      ],
      [
        "ĖĕĖĖ",
        "ėĖĖĖĖĖėĖĖ"
      ],
      [
        "ėă",
        "ĖĖĖĖ"
      ],
      [
        "ĕĕ",
        "ĖĖĕĖĖ"
      ],
      [
        "ĔĖ",
        "ď"
      ],
      [
        "Ē",
        "ĖĘ"
      ],
      [
        "ĖėĖĖ",
        "ėĖĖĖĖĖ"
      ],
      [
        "Ĕ",
        "ē"
      ],
      [
        "Ē",
        "ā"
      ],
      [
        "Ė",
        "'"
      ],
      [
        "ę",
        "Ğ"
      ],
      [
        "ĕ",
        "ēĖĖ"
      ],
      [
        "ĕ",
        "Ĉ"
      ],
      [
        "ę",
        "ĖĖĕĖĖ"
      ],
      [
        "ēĖ",
        "Ě"
      ],
      [
        "Ęă",
        "ĖĖĖĖ"
      ],
      [
        "ĕ",
        "Ğ"
      ],
      [
        "Ĝ",
        "ă"
      ],
      [
        "ĕĕ",
        "ĕ"
      ],
      [
        "Ėĕ",
        "ĖĘ"
      ],
      [
        "ĖĕĖĖ",
        "ėĖĖĖĖĖĕĖĖ"
      ],
      [
        "Ėĕ",
        "ėĖĕ"
      ],
      [
        "Ĕ",
        "ę"
      ],
      [
        "Ġ",
        "ĖĖ"
      ],
      [
        "ď",
        "ę"
      ],
      [
        "Ē",
        "ĖĔ"
      ],
      [
        "ė",
        "ėĕ"
      ],
      [
        "ėă",
        "ĖĕĖė"
      ],
      [
        "Ėĕĕ",
        "ĖĔ"
      ],
      [
        "ėĖė",
        "ĖĖĖĖĖĖĖĖ"
      ],
      [
        "ę",
        "ğ"
      ],
      [
        "ėĖĕ",
        "ĕĖĖ"
      ],
      [
        "Ę",
        "'"
      ],
      [
        "Ę",
        "+"
      ],
      [
        "Ĕ",
        "ĕĖė"
      ],
      [
        "Ė",
        "ėĖĖėĖĖėĖĖ"
      ],
      [
        "ė",
        "ĖĕĖĖĕ"
      ],
      [
        "ĖĕĖĖ",
        "Ę"
      ],
      [
        "Ĕ",
        ","
      ],
      [
        "ĖĕĖĖĕĖĖ",
        "ėĖĖ"
      ],
      [
        "ę",
        "ę"
      ],
      [
        "ĕĖ",
        "Ď"
      ],
      [
        "ėĖĖĖĖ",
        "ėĖĖ"
      ],
      [
        "ėĖ",
        "Ğ"
      ],
      [
        "ĒĖĖ",
        "ĔĖĖ"
      ],
      [
        "ĘĖĖ",
        "ĔĖĖ"
      ],
      [
        "ė",
        "("
      ],
      [
        "ĖĘ",
        "Ėė"
      ],
      [
        "ĖĖĕ",
        "ĖĖĕ"
      ],
      [
        "ĖēĖĖ",
        "ĔĖĖ"
      ],
      [
        "ĘĖ",
        "Đ"
      ],
      [
        "ĔĖĖĕĖĖ",
        "ĔĖĖ"
      ],
      [
        "Ėĕĕ",
        "ĖĖĖĖ"
      ],
      [
        "ę",
        "!"
      ],
      [
        "ě",
        "Ą"
      ],
      [
        "ėĖĖĖĖĖĖĖĖ",
        "Ė"
      ],
      [
        "ĔĖĖĕ",
        "ĖĖĕĖĖĖĖĖ"
      ],
      [
        "Ęă",
        "ĖĖĖĖĖĖĖĖĖĖĖĖĖ"
      ],
      [
        "Ĕ",
        "Ē"
      ],
      [
        "Ėė",
        "Ė"
      ],
      [
        "ĖĔĖĖ",
        "ēĖĖ"
      ],
      [
        "ėĖĖĖĖĕ",
        "ĖĖĕĖĖ"
      ],
      [
        "Ęā",
        "ĖĕĖĖĖĖĖĖĖĖĖĖĖ"
      ],
      [
        "ē",
        "ėĖ"
      ],
      [
        "ĖėĖĖ",
        "Ę"
      ],
      [
        "Ėē",
        "ĖĖĖĖĖ"
      ],
      [
        "Ęă",
        "Ėė"
      ],
      [
        "Ęă",
        "ĕĖĖ"
      ],
      [
        "ėă",
        "ĖĔ"
      ],
      [
        "ė",
        ")"
      ],
      [
        "ĘĀ",
        "ĖĕĖĖĖĖĖĖĖĖĖĖĖ"
      ],
      [
        "ėĕ",
        "ĖĖĖĖ"
      ],
      [
        "Ěă",
        "ĕ"
      ],
      [
        "ēĖ",
        "đ"
      ],
      [
        "ĖĘ",
        "ĖĖĖĖĖ"
      ],
      [
        "ĕ",
        "ğ"
      ],
      [
        "ĖĖĖĖĕĖĖ",
        "ėĖĖĖĖĖ"
      ],
      [
        "Ĕ",
        "Ę"
      ],
      [
        "ĖĔĖĖĖĖĖ",
        "ėĖĖĖĖĖ"
      ],
      [
        "Ĕ",
        "ĕĖĖ"
      ],
      [
        "Ĝ",
        "Ă"
      ],
      [
        "Ę",
        "("
      ],
      [
        "ĘĖĕ",
        "ėĖĖ"
      ],
      [
        "Ė",
        ")"
      ],
      [
        "ęĖ",
        "Ě"
      ],
      [
        "ĘĖ",
        "ĝ"
      ],
      [
        "ĔĖ",
        "ĝ"
      ],
      [
        "ĖĕĖĖ",
        "ėĖĖėĖĖ"
      ],
      [
        "ĖėĖĖėĖĖ",
        "ėĖĖėĖĖ"
      ],
      [
        "ėĖė",
        "ĕĖĖ"
      ],
      [
        "ĕĖ",
        "ėĖĖĕ"
      ],
      [
        "Ė",
        "("
      ],
      [
        "ĖĖĖĖĕ",
        "ĖĖĖ"
      ],
      [
        "ęĖ",
        "ę"
      ],
      [
        "ėĖĕ",
        "ėĖĕ"
      ],
      [
        "ĔĖĖĔĖĖ",
        "ĔĖĖ"
      ],
      [
        "ĘĂ",
        "ĕ"
      ],
      [
        "ĕĖ",
        "Ğ"
      ],
      [
        "Ę",
        "*"
      ],
      [
        "ė",
        "ĔĖĕ"
      ],
      [
        "ė",
        "*"
      ],
      [
        "ĖĕĖĖĕĖĖ",
        "ĔĖĖĕĖĖ"
      ],
      [
        "ėĕ",
        "ĖĖĕĖĖ"
      ],
      [
        "ĖĕĖĖĕ",
        "Ėĕ"
      ],
      [
        "ĕĖ",
        "ĒĖĖ"
      ],
      [
        "Ě",
        "ĕ"
      ],
      [
        "ė",
        "ēĖĖ"
      ],
      [
        "ėă",
        "ĕĕ"
      ],
      [
        ",",
        "Ď"
      ],
      [
        "ėĖ",
        "Ď"
      ],
      [
        "ęĖ",
        "Ē"
      ],
      [
        "ĕĖėĖĖ",
        "Ė"
      ],
      [
        "Ĝ",
        "Ā"
      ],
      [
        "ę",
        "\""
      ],
      [
        "Đ",
        "Ėė"
      ],
      [
        "Ėĕĕ",
        "ĖĖĖĖĖĖĖėĖĖ"
      ],
      [
        "Ě",
        "ĖĔ"
      ],
      [
        "Ě",
        "ĖĘ"
      ],
      [
        "Ę",
        ")"
      ],
      [
        "ę",
        "Ėē"
      ],
      [
        "ĕ",
        "!"
      ],
      [
        "ėĀ",
        "ĖĕĖĖĖĖĖĖĖĖĕĖĖ"
      ],
      [
        "ĖĖĖĖėĖĖėĖĖ",
        "ĕĖĖ"
      ],
      [
        "ė",
        "ĘĖĕ"
      ],
      [
        "ėĖ",
        "ėĖĖĕ"
      ],
      [
        "ėĖĖĕĖĖ",
        "ĔĖĖ"
      ],
      [
        "Ėĕĕ",
        "ĖĖĖĖĖĖĖĕĖĖ"
      ],
      [
        "Ęăĕ",
        "ĖĖĖ"
      ],
      [
        "Ĕ",
        "ĖĖĖĖĕ"
      ],
      [
        "Ęă",
        "ĖėĖĖ"
      ],
      [
        "Ėĕ",
        "ĖĔ"
      ],
      [
        "ē",
        "ē"
      ],
      [
        "Ĕ",
        "ĖĖĖĖ"
      ],
      [
        "Ėĕ",
        "ĖĕĖĖ"
      ],
      [
        "ĚĖĖ",
        "ĘĖĖ"
      ],
      [
        "Ď",
        "ę"
      ],
      [
        "Ē",
        "ĖĖĕĖĖ"
      ],
      [
        "ĖĖĖĖĖĖĖ",
        "ė"
      ],
      [
        "ėĀ",
        "ĖĕĖĖĖĖĖĕĖĖĖĖĖ"
      ],
      [
        "ĖĖĖĖĖĖ",
        "ėĖĖĖĖĖ"
      ],
      [
        "Ę",
        "ėĖė"
      ],
      [
        "Ėă",
        "ĖĔ"
      ],
      [
        "ė",
        "ĖĕĖĖĕĖĖĖĖĖ"
      ],
      [
        "ĔĖ",
        "Ď"
      ],
      [
        "ĔĖĕ",
        "ĕĖĖ"
      ],
      [
        "ĘĂ",
        "ĖĖĖĖĖĖĖĖĖĖĖĖĖ"
      ],
      [
        "Ě",
        "ą"
      ],
      [
        "Ėĕĕ",
        "ĖĖĖĖĕĖĖĖĖĖ"
      ],
      [
        "ė",
        "+"
      ],
      [
        "Ėă",
        "ĕ"
      ],
      [
        "ēĖ",
        "Đ"
      ],
      [
        "ēĖ",
        "ě"
      ],
      [
        "ėĖĖ",
        "ėĖĖĖĖĖ"
      ],
      [
        "Ę",
        "ĖĖĖĖ"
      ],
      [
        "Ē",
        "ĕĖĖĕ"
      ],
      [
        "Ėĕĕ",
        "ĖĕĖĖĕĖĖĖĖĖ"
      ],
      [
        "ĖĔĖĖĔ",
        "ĖĖĕĖĖĖĖĖ"
      ],
      [
        "ĖĖĕĖĖĕĖĖ",
        "ėĖĖ"
      ],
      [
        "ėĀ",
        "ĖĕĖĖĕĖĖĕĖĖĖĖĖ"
      ],
      [
        "ė",
        "ėĖĖĖĖĖ"
      ],
      [
        "ėĀ",
        "ĖĕĖĖĖĖĖĖĖĖėĖĖ"
      ],
      [
        "ĖĕĖĖĔ",
        "ĖĖĕĖĖĖĖĖ"
      ],
      [
        "ĕ",
        "\""
      ],
      [
        "ĖĖĖĖĕ",
        "ĖĖĕ"
      ],
      [
        "Ě",
        ","
      ],
      [
        "đ",
        "Ė"
      ],
      [
        "ĒĖĖ",
        "ēĖĖ"
      ],
      [
        "Ě",
        "Ć"
      ],
      [
        "ĖėĖĖĖĖĖ",
        "ėĖĖĖĖĖ"
      ],
      [
        "ĚĖĖ",
        "ėĖĖ"
      ],
      [
        "Ě",
        "ĕĖ"
      ],
      [
        "ėĀ",
        "ĕ"
      ],
      [
        "ĖĖĖĖĖėĖĖ",
        "ĘĖĖ"
      ],
      [
        "Ĕ",
        "Ě"
      ],
      [
        "Ė",
        "*"
      ],
      [
        "Ėĕĕ",
        "ĖĕĖĖ"
      ],
      [
        "Ėĕĕ",
        "ĖĖĖĖĖ"
      ],
      [
        "Ęăĕ",
        "ĕĖĖ"
      ],
      [
        "ĖĔĖĖ",
        "ē"
      ],
      [
        "ĘĄ",
        "ĕ"
      ],
      [
        "Ě",
        "ć"
      ],
      [
        "Ę",
        "ĕĖĕ"
      ],
      [
        "ę",
        "#"
      ],
      [
        "Ęĕ",
        "ĖĔ"
      ],
      [
        "ĖĖĖĖ",
        "ėĖĖĕĖĖĖĖĖ"
      ],
      [
        "Ě",
        "Ĉ"
      ],
      [
        "Ē",
        "ĕĖ"
      ],
      [
        "Ĕ",
        "ĖĖĖĖĖĕĖĖ"
      ],
      [
        "ėĎ",
        "ĖĕĖĖĖĖĖĖĖĖĖĖĖ"
      ],
      [
        "Ĕ",
        "ĕĕ"
      ],
      [
        "ėĖ",
        "ğ"
      ],
      [
        "ėĕ",
        "ĖĔ"
      ],
      [
        "Ē",
        "ă"
      ],
      [
        "ėă",
        "ĖĕĖĖĕĖĖĖĖĖĖĖĖ"
      ],
      [
        "ėā",
        "ĖĕĖĖĖĖĖĖĖĖĕĖĖ"
      ],
      [
        "ĖĖĖĖėĖĖ",
        "Ė"
      ],
      [
        "ėĂ",
        "ĕ"
      ],
      [
        "ĘĖĕ",
        "ĖĖĖ"
      ],
      [
        "ė",
        "ėĖĖėĖĖ"
      ],
      [
        "Ėĕ",
        "ĕĖĖ"
      ],
      [
        "ĖĔ",
        "ĖĖĖĖĖĕĖĖĕĖĖ"
      ],
      [
        "Đ",
        "ĖĖĖĖĖĖĖĖĖĖĖĖ"
      ],
      [
        "ėĂ",
        "ĖĕĖĖĕĖĖĖĖĖĖĖĖ"
      ],
      [
        "ĔĖ",
        "ĘĖĖ"
      ],
      [
        "ĖĖĖĖĕĖĖ",
        "ėĖĖ"
      ],
      [
        "Ę",
        "ĖėĖĖ"
      ],
      [
        "ėā",
        "ĖĕĖĖĖĖĖĕĖĖĖĖĖ"
      ],
      [
        "ĘĖė",
        "ėĖĖ"
      ],
      [
        "ĖĖĖĖĖĕĖĖ",
        "ĔĖĖ"
      ],
      [
        "ęĖ",
        "ě"
      ],
      [
        "Ėė",
        "ĖĖĖĖĖĖĖĖ"
      ],
      [
        "ĘĖ",
        "ď"
      ],
      [
        "Ē",
        "Ā"
      ],
      [
        "ĖĔĖĖĖĖĖ",
        "ėĖĖėĖĖ"
      ],
      [
        "ėā",
        "ĖĕĖĖĕĖĖĕĖĖĖĖĖ"
      ],
      [
        "Ē",
        "Ă"
      ],
      [
        "Ĕ",
        "ĕĖĕ"
      ],
      [
        "ĖĔ",
        "ĖĖĖĖĖĖĖĖ"
      ],
      [
        "ĖĖĕ",
        "ĖĖĖĖ"
      ],
      [
        "ęă",
        "ĕĕ"
      ],
      [
        "ĖĕĖĖ",
        "ēĖĖ"
      ],
      [
        "Ĕ",
        "đ"
      ],
      [
        "ĔĖĕ",
        "ĖĖĖ"
      ],
      [
        "ĖĖĕĖĖ",
        "ĔĖĖ"
      ],
      [
        "ĕĖĖĕ",
        "Ėė"
      ],
      [
        "ėė",
        "ĖĔ"
      ],
      [
        "ĕ",
        "#"
      ],
      [
        "ėĖĖĖĖ",
        "Ėĕ"
      ],
      [
        "ėĖė",
        "ėĖė"
      ],
      [
        "ę",
        "$"
      ],
      [
        "ĘĖĖėĖĖ",
        "ĘĖĖ"
      ],
      [
        "ĝ",
        "ā"
      ],
      [
        "ĖĕĖĖĕĖĖĕĖĖ",
        "ĔĖĖ"
      ],
      [
        "ėĖĖĖĖ",
        "ĖĖĖėĖĖ"
      ],
      [
        "Ę",
        "ĖĖĖĖĖĖĖĖĖĖĖĖ"
      ],
      [
        "ėā",
        "ĖĕĖĖĖĖĖĖĖĖėĖĖ"
      ],
      [
        "ėĖėĖĖ",
        "ėĖĖĖĖĖ"
      ],
      [
        "ĖĕėĖĖĖĖ",
        "ĖĖĖėĖĖ"
      ],
      [
        "ĔĖĖĕ",
        "ĖĖĕĖĖĕĖĖ"
      ],
      [
        "ėĄ",
        "ĖĖĖĖĖĖĖĖĖĖĖĖĖ"
      ],
      [
        "ėĖĖ",
        "ėĖĕ"
      ],
      [
        "ĘĖĖ",
        "ėĖĖĖĖĖĖĖĖ"
      ],
      [
        "ĘĖ",
        "Ğ"
      ],
      [
        "ĖĖĖĖĕ",
        "ĖĖĕĖĖėĖĖ"
      ],
      [
        "Ě",
        "ėĖ"
      ],
      [
        "ĖĖĖĖ",
        "ĖĕĖė"
      ],
      [
        "ĔĖ",
        "Ğ"
      ],
      [
        "Ĕ",
        "ĖĖĖĖė"
      ],
      [
        "Ĝ",
        "Ėĕ"
      ],
      [
        "ĚĖĖ",
        "ęĖĖ"
      ],
      [
        "ĖėĖĖ",
        "ęĖĖ"
      ],
      [
        "Ėĕė",
        "ĖĕĖĖĕĖĖĖĖĖ"
      ],
      [
        "Ėė",
        "ĖĖĖĖĖĖĖĖėĖĖ"
      ],
      [
        "ėă",
        "ėĕ"
      ],
      [
        "Ĕ",
        "ĖĖĖĖĖėĖĖ"
      ],
      [
        "ĖĔĖĖĔ",
        "ĖĖĕĖĖĕĖĖ"
      ],
      [
        "ė",
        "ĖĕĖĖĖĖĖ"
      ],
      [
        "ĕĖ",
        "ğ"
      ],
      [
        "ėď",
        "ĖĕĖĖĖĖĖĖĖĖĖĖĖ"
      ],
      [
        "ĖĐ",
        "ĖĖ"
      ],
      [
        "ėă",
        "ĖĔĖĖ"
      ],
      [
        "ęĄ",
        "ĕ"
      ],
      [
        "Ě",
        "Ē"
      ],
      [
        "ē",
        "Ę"
      ],
      [
        "ē",
        "Ē"
      ],
      [
        "ė",
        "ęĖĖ"
      ],
      [
        "ėĖė",
        "ĖĖĖĖĖ"
      ],
      [
        "ĘĖĖĘĖĖ",
        "ĘĖĖ"
      ],
      [
        "Đ",
        "Ėĕ"
      ],
      [
        "ĔĖėĖĖ",
        "Ė"
      ],
      [
        "Ĕ",
        "ėĖĕ"
      ],
      [
        "ĕă",
        "ė"
      ],
      [
        "ēĖ",
        "Ĝ"
      ],
      [
        "ĘĀ",
        "ĕ"
      ],
      [
        "ēĖ",
        "ď"
      ],
      [
        "ėă",
        "ĖĖĖ"
      ],
      [
        "ę",
        "%"
      ],
      [
        "ėĖ",
        "ĒĖĖ"
      ],
      [
        "ĕĖ",
        "ĚĖĖ"
      ],
      [
        "ĕĕ",
        "ĖĖĕĖĖĖĖĖĖĖĖ"
      ],
      [
        "ĕ",
        "$"
      ],
      [
        "Ęă",
        "ĖĕĖĖĖĖĖĖĖĖĖĖĖ"
      ],
      [
        "ęĂ",
        "ĕ"
      ],
      [
        "Ĝ",
        "Ėė"
      ],
      [
        "Ĕ",
        "ėĖĖ"
      ],
      [
        "ĖĕĖĖ",
        "ē"
      ],
      [
        "ĖĕĖĖĕĖĖ",
        "ĔĖĖĖĖĖ"
      ],
      [
        "ė",
        "ėĖėĖĖ"
      ],
      [
        ",",
        "ď"
      ],
      [
        "ę",
        "&"
      ],
      [
        "Ě",
        "đ"
      ],
      [
        "ėă",
        "ĕĕĖĖ"
      ],
      [
        "ėĖė",
        "ĘĖĖ"
      ],
      [
        "ęĖ",
        "đ"
      ],
      [
        "ĖĕĖĖĖĖĖĖĖĖ",
        "Ė"
      ],
      [
        "Ėĕ",
        "ėĖĖĖĖĖĖĖĕĖĖ"
      ],
      [
        "ęă",
        "ĕĖĖ"
      ],
      [
        "ĖĀ",
        "ĕ"
      ],
      [
        "ĖėĖĖ",
        "ėĖĖĖĖĖėĖĖ"
      ],
      [
        "ęĖ",
        "Ĝ"
      ],
      [
        "ĖĖĕ",
        "ĖėĖĖ"
      ],
      [
        "ĖĔ",
        "ĖĖĕĖĖĖĖĖ"
      ],
      [
        "ę",
        "ĖĖĖ"
      ],
      [
        "Ėă",
        "ėĕĖĖ"
      ],
      [
        "ĔĖė",
        "ĕĖė"
      ],
      [
        "ĖēĖĖ",
        "ēĖĖ"
      ],
      [
        "ĖĕĖĖĔ",
        "ĖĖĕĖĖĕĖĖ"
      ],
      [
        "ĖĖĖĖėĖĖ",
        "ĘĖĖėĖĖ"
      ],
      [
        "ėĖĖĖĖ",
        "ĕĖĖ"
      ],
      [
        "Ėė",
        "ĖĖĖĖĖĖĖĖĕĖĖ"
      ],
      [
        "ėĖĖĖĖĖĖĖĖ",
        "ėĖĖ"
      ],
      [
        "ė",
        "ĘĖė"
      ],
      [
        "ėĖ",
        "ĚĖĖ"
      ],
      [
        "Ėĕ",
        "Ėĕĕ"
      ],
      [
        "ĖĖĕ",
        "ĖĖĕĖĖĕĖĖ"
      ],
      [
        "ĖĖĖĖĕĖĖ",
        "ėĖĖėĖĖ"
      ],
      [
        "ĔĖ",
        "ėĖĖĕ"
      ],
      [
        "ĖĒ",
        "Ėė"
      ],
      [
        "ėă",
        "ĖĕĖĖĖĖ"
      ],
      [
        "ĖĕĖĖĔ",
        "ĖĖĖĖĖĖĖĖ"
      ],
      [
        "ĕ",
        "%"
      ],
      [
        "Ě",
        "Ď"
      ],
      [
        "Ě",
        "ě"
      ],
      [
        "ėĐ",
        "ĖĕĖĖĖĖĖĖĖĖĖĖĖ"
      ],
      [
        "ĘĄ",
        "ĖĖĖĖĖĖĖĖĖĖĖĖĖ"
      ],
      [
        "ėĖĕ",
        "ĘĖĖ"
      ],
      [
        "ĖĔĖĖĕĖĖ",
        "ėĖĖĖĖĖ"
      ],
      [
        "Ęă",
        "ĖĖ"
      ],
      [
        "ĔĖė",
        "ĔĖĖ"
      ],
      [
        "Ėĕ",
        "ėĖĖĖĖĕĖĖĖĖĖ"
      ],
      [
        "ėĖĖ",
        "ĔĖĖ"
      ],
      [
        "Ě",
        "ď"
      ],
      [
        "ĖĖĖĖĕ",
        "Ėė"
      ],
      [
        "ęă",
        "ĕĖĖĖ"
      ],
      [
        "Ėĕĕ",
        "ĖĖĖĖėĖĖĖĖĖ"
      ],
      [
        "ĖĖĖĖ",
        "ĖĖĕĖĖ"
      ],
      [
        "ĘĖĖ",
        "Ę"
      ],
      [
        "ē",
        "Ą"
      ],
      [
        "ĖĔĖĖĕĖĖĕĖĖ",
        "ėĖĖ"
      ],
      [
        "ė",
        "ĕĖĘ"
      ],
      [
        "Ėă",
        "Ę"
      ],
      [
        "Ĕ",
        "Đ"
      ],
      [
        "Ĕ",
        "ě"
      ],
      [
        "ĖĕĖĖ",
        "ėĖĖĕĖĖĖĖĖ"
      ],
      [
        "Ėĕ",
        "ĖĖĖĖĖĖ"
      ]
    ]
  }
}