{
  "version": "1.0",
  "truncation": null,
  "padding": null,
  "added_tokens": [],
  "normalizer": null,
  "pre_tokenizer": {
    "type": "ByteLevel",
    "add_prefix_space": false,
    "trim_offsets": true,
    "use_regex": true
  },
  "post_processor": {
    "type": "ByteLevel",
    "add_prefix_space": true,
    "trim_offsets": false,
    "use_regex": true
  },
  "decoder": {
    "type": "ByteLevel",
    "add_prefix_space": true,
    "trim_offsets": true,
    "use_regex": true
  },
  "model": {
    "type": "BPE",
    "dropout": null,
    "unk_token": null,
    "continuing_subword_prefix": null,
    "end_of_word_suffix": null,
    "fuse_unk": false,
    "byte_fallback": false,
    "ignore_merges": false,
    "vocab": {
      "\u0000": 0,
      "\u0001": 1,
      "\u0002": 2,
      "\u0003": 3,
      "\u0004": 4,
      "\u0005": 5,
      "\u0006": 6,
      "\u0007": 7,
      "\b": 8,
      "\t": 9,
      "\n": 10,
      "\u000b": 11,
      "\f": 12,
      "\r": 13,
      "\u000e": 14,
      "\u000f": 15,
      "\u0010": 16,
      "\u0011": 17,
      "\u0012": 18,
      "\u0013": 19,
      "\u0014": 20,
      "\u0015": 21,
      "\u0016": 22,
      "\u0017": 23,
      "\u0018": 24,
      "\u0019": 25,
      "\u001a": 26,
      "\u001b": 27,
      "\u001c": 28,
      "\u001d": 29,
      "\u001e": 30,
      "\u001f": 31,
      " ": 32,
      "!": 33,
      "\"": 34,
      "#": 35,
      "$": 36,
      "%": 37,
      "&": 38,
      "'": 39,
      "(": 40,
      ")": 41,
      "*": 42,
      "+": 43,
      ",": 44,
      "Ā": 45,
      "ā": 46,
      "Ă": 47,
      "ă": 48,
      "Ą": 49,
      "ą": 50,
      "Ć": 51,
      "ć": 52,
      "Ĉ": 53,
      "ĉ": 54,
      "Ċ": 55,
      "ċ": 56,
      "Č": 57,
      "č": 58,
      "Ď": 59,
      "ď": 60,
      "Đ": 61,
      "đ": 62,
      "Ē": 63,
      "ē": 64,
      "Ĕ": 65,
      "ĕ": 66,
      "Ė": 67,
      "ė": 68,
      "Ę": 69,
      "ę": 70,
      "Ě": 71,
      "ě": 72,
      "Ĝ": 73,
      "ĝ": 74,
      "Ğ": 75,
      "ğ": 76,
      "Ġ": 77,
      "ĖĖ": 78,
      "ĕĖ": 79,
      "ėĖ": 80,
      "ĕĖĖ": 81,
      "ėĖĖ": 82,
      "ĖĖĖĖ": 83,
      "ĘĖĖ": 84,
      "ĔĖĖ": 85,
      "ĘĖ": 86,
      "ĔĖ": 87,
      "ĖĖĖ": 88,
      "ėĕĖ": 89,
      "ĕĕĖ": 90,
      "ĕėĖ": 91,
      "ėėĖ": 92,
      "ĕĕ": 93,
      "ėė": 94,
      "ęĖ": 95,
      "ęĖĖ": 96,
      "ēĖĖ": 97,
      "ĖĖĖĖĖ": 98,
      "ĘĕĖ": 99,
      "ĕė": 100,
      "ēĖ": 101,
      "ĔĕĖ": 102,
      "ĔėĖ": 103,
      "ĘėĖ": 104,
      "ĚĖ": 105,
      "ĕĖĖĖĖ": 106,
      "ėĕ": 107,
      "ėĖĖĖĖ": 108,
      "ĖėĖ": 109,
      "ĖĕĖ": 110,
      "ĒĖ": 111,
      "ėĖĖĖĖĖ": 112,
      "ĚĖĖ": 113,
      "ĕĖĖĖĖĖ": 114,
      "ęĕĖ": 115,
      "ěĖ": 116,
      "ĒĖĖ": 117,
      "ēėĖ": 118,
      "ēĕĖ": 119,
      "ĕĔ": 120,
      "ęėĖ": 121,
      "ėĘ": 122,
      "ėĖĖėĖĖ": 123,
      "ĕĖĖĕĖĖ": 124,
      "ĕĘ": 125,
      "ėĔ": 126,
      "đĖ": 127,
      "ĕĘĖ": 128,
      "ėĖĖĕĖĖ": 129,
      "ĕĕĖĖ": 130,
      "ėĘĖ": 131,
      "ĜĖ": 132,
      "ėĔĖ": 133,
      "ĕĔĖ": 134,
      "ėĖĖĖ": 135,
      "ėĕĖĖ": 136,
      "ĖĖĖĖĖĖ": 137,
      "ĆĖ": 138,
      "Ĕĕ": 139,
      "ěĖĖ": 140,
      "Ĕė": 141,
      "ĚĕĖ": 142,
      "ĕĖĖĖ": 143,
      "Ęĕ": 144,
      "ėĖĖĕĖ": 145,
      "Ęė": 146,
      "ĒėĖ": 147,
      "ĕĖĖėĖĖ": 148,
      "ĐĖ": 149,
      "ĒĕĖ": 150,
      "đĖĖ": 151,
      "ėĖĖėĖ": 152,
      "ĕē": 153,
      "ĚėĖ": 154,
      "ĔĘĖ": 155,
      "ėę": 156,
      "ĘĖĖĖĖĖ": 157,
      "ĘĘĖ": 158,
      "ĖĘĖ": 159,
      "ĘĔĖ": 160,
      "ĝĖ": 161,
      "ĔĖĖĖĖĖ": 162,
      "ĖĖĖĖĖĖĖĖ": 163,
      "ĕę": 164,
      "ĔĔĖ": 165,
      "ćĖ": 166,
      "ėē": 167,
      "ėęĖ": 168,
      "ĕęĖ": 169,
      "ĕĖĖĕĖ": 170,
      "ėĖĖĘĖĖ": 171,
      "ĔĔ": 172,
      "ĘĘ": 173,
      "ďĖ": 174,
      "ėĖĖĔĖĖ": 175,
      "ĕĖĖėĖ": 176,
      "ėĕĖĖĖĖ": 177,
      "ėėĖĖ": 178,
      "ĖĖĖĖĖĖĖ": 179,
      "ĖęĖ": 180,
      "ĕĖĖĔĖĖ": 181,
      "ĕĖĖĘĖĖ": 182,
      "ĘĔ": 183,
      "ĕĒ": 184,
      "ĖĔĖ": 185,
      "ėĚ": 186,
      "ĕėĖĖ": 187,
      "ĕēĖ": 188,
      "ĘĆ": 189,
      "ĔĆ": 190,
      "ĕĕĖĖĖĖ": 191,
      "Ėć": 192,
      "ĜĖĖ": 193,
      "ĔĘ": 194,
      "ĕėė": 195,
      "ĕĔĖĖ": 196,
      "ĕėĖĖĖĖ": 197,
      "ěĕĖ": 198,
      "ėēĖ": 199,
      "ėĒ": 200,
      "ėĕĕ": 201,
      "ēĘĖ": 202,
      "ĘĖĖėĖĖ": 203,
      "ĖĆ": 204,
      "ĘĖĖĕĖĖ": 205,
      "ĕĚ": 206,
      "ėĚĖ": 207,
      "đėĖ": 208,
      "đĕĖ": 209,
      "ąĖ": 210,
      "ĎĖ": 211,
      "ėėĖĖĖĖ": 212,
      "ĐĖĖ": 213,
      "ęĔĖ": 214,
      "ĕĆ": 215,
      "ĕĚĖ": 216,
      "ĞĖ": 217,
      "ėĆ": 218,
      "ęĘĖ": 219,
      "Ęę": 220,
      "Ĕē": 221,
      "ĔĖĖĕĖĖ": 222,
      "ėć": 223,
      "ĖĚĖ": 224,
      "ěėĖ": 225,
      "ĔęĖ": 226,
      "ēĔĖ": 227,
      "ĘęĖ": 228,
      "ĔĖĖėĖĖ": 229,
      "ĕć": 230,
      "Ęē": 231,
      "ėĘĖĖ": 232,
      "ėĕė": 233,
      "ĕđ": 234,
      "ėĕĖĕĖĖ": 235,
      "ėĖĖĖĕĖ": 236,
      "Ĕę": 237,
      "ėĕĖėĖĖ": 238,
      "ėě": 239,
      "ĕĖĖĖĕĖ": 240,
      "ĖĖĖĕĖ": 241,
      "ėđ": 242,
      "ėĖĖĖėĖ": 243,
      "ĖēĖ": 244,
      "Ęĕĕ": 245,
      "ĕĕĖĕĖĖ": 246,
      "Ėą": 247,
      "ĘĖĖĘĖĖ": 248,
      "ĖĖĖėĖ": 249,
      "ĕĖĖĖėĖ": 250,
      "ĕĕĖėĖĖ": 251,
      ",Ė": 252,
      "ĕě": 253,
      "ĕĘĖĖ": 254,
      "ęĖĖĖĖĖ": 255,
      "Ĕėė": 256,
      "ĕĐ": 257,
      "ĔĖĖĔĖĖ": 258,
      "ĔēĖ": 259,
      "ĕėĖėĖĖ": 260,
      "ėěĖ": 261,
      "ĕĒĖ": 262,
      "ĘĕĖĖĖĖ": 263,
      "ėĔĖĖ": 264,
      "ĕėĖĕĖĖ": 265,
      "ĔĒ": 266,
      "ėėĖėĖĖ": 267,
      "Ĕĕė": 268,
      "ĘĚ": 269,
      "ĕěĖ": 270,
      "ĕą": 271,
      "ĘĚĖ": 272,
      "ĘēĖ": 273,
      "ēĖĖĖĖĖ": 274,
      "ĘĒ": 275,
      "ĖěĖ": 276,
      "ėą": 277,
      "ėėĖĕĖĖ": 278,
      "Ęėė": 279,
      "Ĕĕĕ": 280,
      "ėĐ": 281,
      "ĔĚĖ": 282,
      "ęę": 283,
      "Ęć": 284,
      "ėĒĖ": 285,
      "ĈĖ": 286,
      "ėĜ": 287,
      "Ęėĕ": 288,
      "ĘĖĖĔĖĖ": 289,
      "ēē": 290,
      "Ĕć": 291,
      "ğĖ": 292,
      "ĘĖĖĖĖ": 293,
      "ĒĘĖ": 294,
      "Ęĕė": 295,
      "ĝĖĖ": 296,
      "ĔĖĖĖĖ": 297,
      "ĕĖĖĖĖĖĖ": 298,
      "ęē": 299,
      "ĔĕĖĖĖĖ": 300,
      "ĚĔĖ": 301,
      "ĕď": 302,
      "ĔėĖĖĖĖ": 303,
      "ĕĕĕĖ": 304,
      "ēĆ": 305,
      "ĔĚ": 306,
      "ėĖĖėĕĖ": 307,
      "ęĆ": 308,
      "ĔĖĖĘĖĖ": 309,
      "ēęĖ": 310,
      "ęĕĕ": 311,
      "ėęĖĖ": 312,
      "ĖĒĖ": 313,
      "ĕĜ": 314,
      "ėď": 315,
      "ĘėĖĖĖĖ": 316,
      "ĕēĖĖ": 317,
      "ėĖĖĖĖĖĖ": 318,
      "ĕĖĖĖĖĖĖĖ": 319,
      "ĒĔĖ": 320,
      "ĚĘĖ": 321,
      "ĜĕĖ": 322,
      "ėĖĖĕėĖ": 323,
      "ĕĖĖėĕĖ": 324,
      "ĕĖĖĖĖĖĖĖĖ": 325,
      "ęęĖ": 326,
      "ėĖĖĕĕĖ": 327,
      "Ĕđ": 328,
      "ĕĕėĖ": 329,
      "ĐėĖ": 330,
      "ĐĕĖ": 331,
      "ĔĖė": 332,
      "Ęđ": 333,
      "ėĖĖĖĖĖĖĖĖ": 334,
      "ėĕĖĖĕĖ": 335,
      "ĕĖĖĕėĖ": 336,
      "ėĖĖėėĖ": 337,
      "ēėė": 338,
      "ęėĕ": 339,
      "Ĕėĕ": 340,
      "ĕĖĖĕĕĖ": 341,
      "ēę": 342,
      "ēĕė": 343,
      "ĖĖĕĖ": 344,
      "Ęě": 345,
      "ėėĕĖ": 346,
      "ėĖĖęĖĖ": 347,
      "ĕđĖ": 348,
      "ĘĖĖĖĕĖ": 349,
      "Ėē": 350,
      "ĜėĖ": 351,
      "ėĕĖĖėĖ": 352,
      "ĕĎ": 353,
      "ĕėĕĖ": 354,
      "ėĖĖĖĖĖĖĖ": 355,
      "ĘěĖ": 356,
      "ĕĖė": 357,
      "ďĖĖ": 358,
      "ĕĖĖėėĖ": 359,
      "Ėę": 360,
      "ėĕĖĔĖĖ": 361,
      "ĔěĖ": 362,
      "ĘĖė": 363,
      "ĕėėĖ": 364,
      "ĕĕĖĖĕĖ": 365,
      "ĕĕĖĔĖĖ": 366,
      "ėĎ": 367,
      "ėĖĖēĖĖ": 368,
      "ėĕĖĘĖĖ": 369,
      "Ĕą": 370,
      "Ęą": 371,
      "ĕĖĖēĖĖ": 372,
      "ęĒ": 373,
      "ĔĒĖ": 374,
      "ėĝ": 375,
      "ĕėĖĖĕĖ": 376,
      "ĕĖĖęĖĖ": 377,
      "ėĜĖ": 378,
      "ėĖė": 379,
      "ĕĜĖ": 380,
      "ĖĜĖ": 381,
      "ĖĆĖ": 382,
      "ēĒ": 383,
      "ĔĖĖĖĕĖ": 384,
      "ĕĕĖĖėĖ": 385,
      "Ĕě": 386,
      "ĘĖĖĕĖ": 387,
      "ĔĖĖĖ": 388,
      "ĘĖĖĖėĖ": 389,
      "ėėėĖ": 390,
      "Ěē": 391,
      "ĕėĖĖėĖ": 392,
      "ĕĔĕĖ": 393,
      "ĘĐ": 394,
      "Ěę": 395,
      "ĔĐ": 396,
      "ĘĖĖĖ": 397,
      "ĘĆĖ": 398,
      "ėėĖĖĕĖ": 399,
      "ēēĖ": 400,
      "ĔĖĖĖėĖ": 401,
      "ēć": 402,
      "ėđĖ": 403,
      "ĔĆĖ": 404,
      "ęėė": 405,
      "ĕĝ": 406,
      "ėĖĖĘĕĖ": 407,
      "ĕĕĖĘĖĖ": 408,
      "ĘĒĖ": 409,
      "ĖĒ": 410,
      "Ěĕĕ": 411,
      "ęć": 412,
      "ēĕĕ": 413,
      "ĠĖ": 414,
      "ęĖĖĕĖĖ": 415,
      "ĖđĖ": 416,
      "ęĚ": 417,
      "ĖćĖ": 418,
      "ėĆĖ": 419,
      "ĔĖĖĕĖ": 420,
      "ĘĖĕ": 421,
      "ęĖĖėĖĖ": 422,
      "ĕĆĖ": 423,
      "Ēē": 424,
      "ĕėĖĘĖĖ": 425,
      "ęēĖ": 426,
      "ėėĖĖėĖ": 427,
      "ēĚĖ": 428,
      "ęĕė": 429,
      "ĕĖĕĖ": 430,
      "ĘĕĖĕĖĖ": 431,
      "ėėĖĘĖĖ": 432,
      "Ĕď": 433,
      "ĕėĖĔĖĖ": 434,
      "ėĕĕĖ": 435,
      "ĘĜ": 436,
      "ĖĖĖĖĕĖĖ": 437,
      "ĕęĖĖ": 438,
      "ęĚĖ": 439,
      "ĘĖĖėĖ": 440,
      "ĘĕĖėĖĖ": 441,
      "Ęď": 442,
      "ėėĖĔĖĖ": 443,
      "ēĖĖĕĖĖ": 444,
      "Ěėĕ": 445,
      "ėĕėĖ": 446,
      "ęĔ": 447,
      "ėĖėĖ": 448,
      "ėĕĖėĕĖ": 449,
      "ĕĔėĖ": 450,
      "ĖėĖĖĖĖ": 451,
      "Ēėė": 452,
      "đĘĖ": 453,
      "ēĔ": 454,
      "ėĞ": 455,
      "ěĔĖ": 456,
      "ĕĈ": 457,
      "ėĈ": 458,
      "ęđ": 459,
      "ėĖĖĔėĖ": 460,
      "ęĖĖĘĖĖ": 461,
      "ĕĐĖ": 462,
      "Ēĕė": 463,
      "ĕĖĖĖĖĖĕĖĖ": 464,
      "ėĖĕĖ": 465,
      "ĖĈ": 466,
      "ĖĚ": 467,
      "ęĘ": 468,
      "ĒĆ": 469,
      "ĔĖĕ": 470,
      "ėĖĖĔĕĖ": 471,
      "ėĚĖĖ": 472,
      "ĔĖĖėĖ": 473,
      "ėĖĖĘėĖ": 474,
      "ĖĕĖĖĖĖ": 475,
      "ēėĕ": 476,
      "ēđ": 477,
      "ĘĕĖĘĖĖ": 478,
      "ĕĞ": 479,
      "Ēę": 480,
      "ėĖĖĖĖĖĕĖĖ": 481,
      "ĕĕė": 482,
      "ēĚ": 483,
      "ėćĖ": 484,
      "ęĕĖĖĖĖ": 485,
      "Ėđ": 486,
      "ėĕĖĕėĖ": 487,
      "ĕĖĖĖĖĖėĖĖ": 488,
      "ĔĕĖĕĖĖ": 489,
      "ēĖĖĔĖĖ": 490,
      "ēĖė": 491,
      "ĘĎ": 492,
      "ęĖĖĔĖĖ": 493,
      "ĔėĖĕĖĖ": 494,
      "đĔĖ": 495,
      "ĕćĖ": 496,
      "ēĖĖėĖĖ": 497,
      "ĔĜĖ": 498,
      "ĘĜĖ": 499,
      "ĘėĖĕĖĖ": 500,
      "ĘĕĖĔĖĖ": 501,
      "ĚĆ": 502,
      "ĔĎ": 503,
      "ĕĕĖĖĖ": 504,
      "ĖĖĖĖėĖĖ": 505,
      "ĚĒ": 506,
      "ēĖĖĘĖĖ": 507,
      "ĒęĖ": 508,
      "ĘĕĖĖĕĖ": 509,
      "ĕĒĖĖ": 510,
      "ĔđĖ": 511,
      "ĕĕĖĕĕĖ": 512,
      "ěĘĖ": 513,
      "ĘĖĖĖĖĖĖĖĖ": 514,
      "ęě": 515,
      "ėĖĖĖĖĖėĖĖ": 516,
      "ėėė": 517,
      "ĒĒ": 518,
      "ēė": 519,
      "ĕĖĕĖĖ": 520,
      "ėĐĖ": 521,
      "ĔĈ": 522,
      "ĕėĖĕėĖ": 523,
      "ĘĕĖĖ": 524,
      "ĖĐĖ": 525,
      "ĔĜ": 526,
      "ėĕĖĕĕĖ": 527,
      "ēĘ": 528,
      "ĝĕĖ": 529,
      "ĕĕĖĖĖĖĖ": 530,
      "ĚĚ": 531,
      "ĔėĖėĖĖ": 532,
      "ĘĈ": 533,
      "ēėĖĖĖĖ": 534,
      "ĖĖėĖ": 535,
      "ēą": 536,
      "ĔĕĖĖ": 537,
      "ĔĖĖĖĖĖĖĖĖ": 538,
      "ęė": 539,
      "ĘėĖėĖĖ": 540,
      "ĖĖĖĖĕĖ": 541,
      "ėĕĖėėĖ": 542,
      "ĘĖĖęĖĖ": 543,
      "ĖĖĖĖĖĖĖĖĖĖ": 544,
      "ďėĖ": 545,
      "ĚĖĖĖĖĖ": 546,
      "ĔĕĖėĖĖ": 547,
      "ĔĕĖĔĖĖ": 548,
      "ĘĖĖĕĕĖ": 549,
      "ĘĔĕ": 550,
      "ĘđĖ": 551,
      "ėĖĕ": 552,
      "ďĕĖ": 553,
      "ĕĝĖ": 554,
      "ēĕĖĖĖĖ": 555,
      "ĚęĖ": 556,
      "ėēĖĖ": 557,
      "ĘĖĖėėĖ": 558,
      "Ēć": 559,
      "ęą": 560,
      "ėĝĖ": 561,
      "ĘĕĖĖėĖ": 562,
      "ĘĖĖėĕĖ": 563,
      "ēěĖ": 564,
      "ęĐ": 565,
      "ĕĖĖĘĕĖ": 566,
      "ĕėĖĖĖ": 567,
      "ĘĖĖĕėĖ": 568,
      "ĖĐ": 569,
      "ĔėĖĖ": 570,
      "ėĕĖĖĖ": 571,
      "ĖĝĖ": 572,
      "ėėĖėėĖ": 573,
      "ęĖĖĖĕĖ": 574,
      "ęėĖĖĖĖ": 575,
      "ĔėĖĔĖĖ": 576,
      "ĖĖĖĖĔĖĖ": 577,
      "ĔĕĔ": 578,
      "Ěć": 579,
      "ĘėĖĖ": 580,
      "ĖĖĖĖĖĕĖ": 581,
      "ĔĕĖĖĕĖ": 582,
      "ĕĕĖĕėĖ": 583,
      "ęĖĖĕĖ": 584,
      "Ěĕė": 585,
      "ĖąĖ": 586,
      "ĘĘĕ": 587,
      "Ěėė": 588,
      "ĞĖĖ": 589,
      "ēĐ": 590,
      "ēĒĖ": 591,
      "ĘėĖĔĖĖ": 592,
      "ęěĖ": 593,
      "ĝėĖ": 594,
      "ėĘĕĖ": 595,
      "ĘĖĖēĖĖ": 596,
      "ĖĘĖĖĖĖ": 597,
      "ĕĕĖėėĖ": 598,
      "Ėď": 599,
      "ĒĖĖĖĖĖ": 600,
      "ĕėĖėĕĖ": 601,
      "ēĖĖĖĕĖ": 602,
      "ĕĖĖĔėĖ": 603,
      "ĖĎ": 604,
      "ėėĕ": 605,
      "ĔėĖĖĕĖ": 606,
      "Ęĝ": 607,
      "ĖĖĖĖĖĖĖĖĖĖĖĖĖ": 608,
      "ęĕ": 609,
      "ėĘĖĖĖĖ": 610,
      "ěĕĕ": 611,
      "!Ė": 612,
      "Ēĕĕ": 613,
      "ĖĖĖĖėĖ": 614,
      "ęĖė": 615,
      "ĒēĖ": 616,
      "ĘėĖĖĕĖ": 617,
      "ęĖĕ": 618,
      "ĖĖĖĖĖėĖ": 619,
      "ĕĕĖėĕĖ": 620,
      "ĘėĘ": 621,
      "ĕĘĖĖĖĖ": 622,
      "ėĕĖĖĖĖĖĖĖ": 623,
      "ĘėĖĘĖĖ": 624,
      "ęĖĖĖėĖ": 625,
      "ĔĕĖĖėĖ": 626,
      "Ēđ": 627,
      "ēĕ": 628,
      "ĕĖėĖ": 629,
      "ēě": 630,
      "ĕĕĕ": 631,
      "ĔėĖĖėĖ": 632,
      "Ěđ": 633,
      "ėĖĖĖĖĖėĖ": 634,
      "ĕĖėĖĖ": 635,
      "ĕĖĖĔĕĖ": 636,
      "ėėĖėĕĖ": 637,
      "ĔĖĖēĖĖ": 638,
      "ęĔĕ": 639,
      "ĔĖĖĕėĖ": 640,
      "ĘĕĘ": 641,
      "ęĘĕ": 642,
      "ėėĖĕĕĖ": 643,
      "ĕĖĕ": 644,
      "ĔėĘ": 645,
      "ēĖĖĖėĖ": 646,
      "Ėě": 647,
      "ĔėĔ": 648,
      "ĕďĖ": 649,
      "ĔĖĖėĕĖ": 650,
      "ęď": 651,
      "ĔĔė": 652,
      "ĕėĕ": 653,
      "ėĔĖĖĖĖ": 654,
      "ėėĖĕėĖ": 655,
      "đėė": 656,
      "ĎĖĖ": 657,
      "ĚēĖ": 658,
      "ĔĖĖĕĕĖ": 659,
      "ĘĕĔ": 660,
      "ĘėĖĖėĖ": 661,
      "ěėĕ": 662,
      "ęĈ": 663,
      "ēď": 664,
      "ĔĖĖęĖĖ": 665,
      "ēĈ": 666,
      "ĔėĖĘĖĖ": 667,
      "ĕąĖ": 668,
      "ĕĖĖĖĖĖėĖ": 669,
      "ĔĕĖĘĖĖ": 670,
      "ĔĕĘ": 671,
      "ęĒĖ": 672,
      "ęĖĖĖ": 673,
      "ėğ": 674,
      "ĒĚ": 675,
      "đĕė": 676,
      "ĔĐĖ": 677,
      "ĕĔĖĖĖĖ": 678,
      "Ĕĝ": 679,
      "ēĖĖĖ": 680,
      "ėĖĖĖĖĖĕĖ": 681,
      "ĕĖĖĘėĖ": 682,
      "ĖĔĖĖĖĖ": 683,
      "ĖďĖ": 684,
      "ĕėĖĕĕĖ": 685,
      "ėĘėĖ": 686,
      "ĕĕĕĕ": 687,
      "ĖĖĖĖĖĖėĖ": 688,
      "ęĜ": 689,
      "ėĖĖėĖĖėĖĖ": 690,
      "ĕĚĖĖ": 691,
      "Ěě": 692,
      "ĕĖĖĖĖĖĕĖ": 693,
      "ėąĖ": 694,
      "ĜĔĖ": 695,
      "ĘėĔ": 696,
      "ĕėĖėėĖ": 697,
      "ėďĖ": 698,
      "ĕĕĖĖĖĖĖĖĖ": 699,
      "ĕēĕĖ": 700,
      "đē": 701,
      "Ēėĕ": 702,
      "ĔĖĖėėĖ": 703,
      "ĐĘĖ": 704,
      "ĘĖĖĘĕĖ": 705,
      "ęĖĖėĖ": 706,
      "ėėėė": 707,
      "ĒĚĖ": 708,
      "ĘćĖ": 709,
      "ĕĖĖĕĖĖĕĖĖ": 710,
      "ėėĖĖĖ": 711,
      "ěē": 712,
      "ĚĐ": 713,
      "ĖĖĖĖĖĖĖĖĖ": 714,
      "ēĔė": 715,
      "ĔĘė": 716,
      "ęĎ": 717,
      "đĒ": 718,
      "ęĖĖęĖĖ": 719,
      "ĕğ": 720,
      "ĘĕĖėĕĖ": 721,
      "ēĎ": 722,
      "ĒĐ": 723,
      "ĔćĖ": 724,
      "ĕėĖĖĖĖĖĖĖ": 725,
      "ėěĖĖ": 726,
      "ĖĖĖĖĘĖĖ": 727,
      "ĕĕĖĖĕĖĖ": 728,
      "ĘĞ": 729,
      "ěĒ": 730,
      "ėėĕė": 731,
      "đĆ": 732,
      "ěę": 733,
      "ĖĖĖĖĖĖĕĖ": 734,
      "ēĆĖ": 735,
      "ĕĖĖėĖĖĖĖĖ": 736,
      "ĖĚĖĖ": 737,
      "ēĖĕ": 738,
      "ęĆĖ": 739,
      "ėĖĖėĖĖĖĖĖ": 740,
      "ėĕĖēĖĖ": 741,
      "ĘĝĖ": 742,
      "ĔĝĖ": 743,
      "ėĕĖęĖĖ": 744,
      "ĕĕĖēĖĖ": 745,
      "+Ė": 746,
      "ėĕĖĘĕĖ": 747,
      "ĐĔĖ": 748,
      "ĒĖė": 749,
      "\"Ė": 750,
      "Ēą": 751,
      "ĚĘĕ": 752,
      "ėĖĖė": 753,
      "ĕėĕĕ": 754,
      "ěĆ": 755,
      "ėĖĖėĖĖĕĖĖ": 756,
      "ĘĕĖĕėĖ": 757,
      "ĜĘĖ": 758,
      "ęĕĖĕĖĖ": 759,
      "ěĚ": 760,
      "ĘĐĖ": 761,
      "ēĖĖēĖĖ": 762,
      "ĚĚĖ": 763,
      "ĕĕėė": 764,
      "ęĕĖėĖĖ": 765,
      "ēĜĖ": 766,
      "ėėĖė": 767,
      "ėĕĖĔėĖ": 768,
      "ĕĖĖĕĖĖėĖĖ": 769,
      "ēĘė": 770,
      "ĕĘĕĖ": 771,
      "ĒĈ": 772,
      "ĔĔĕ": 773,
      "ěđ": 774,
      "Ěď": 775,
      "ĔĖĖĔėĖ": 776,
      "đć": 777,
      "ĕēėĖ": 778,
      "ēđĖ": 779,
      "ĕĕĖęĖĖ": 780,
      "ĘĖĖĘėĖ": 781,
      "ėĖĖĕĖĖėĖĖ": 782,
      "ĚĔĕ": 783,
      "ĕĖĖĕĖĖĖĖĖ": 784,
      "ĔĖĖĔĕĖ": 785,
      "ĕĕĖĔĕĖ": 786,
      "ěć": 787,
      "ĕėĖęĖĖ": 788,
      "ĕėĖēĖĖ": 789,
      "Ěą": 790,
      "ėĕėė": 791,
      "ĘĔė": 792,
      "ĕĎĖ": 793,
      "ĚĈ": 794,
      "ĔĖĖĘĕĖ": 795,
      "đę": 796,
      "ėĖĕĖĖ": 797,
      "ĕĘėĖ": 798,
      "Ēď": 799,
      "ĖėĖĖ": 800,
      "ĘĖĖĔĕĖ": 801,
      "ėėĖęĖĖ": 802,
      "ėĖĖĖĖĖĖĖĖĖĖĖ": 803,
      "ĕėĕė": 804,
      "ĕėĖĘĕĖ": 805,
      "ĖĕĖĖ": 806,
      "đęĖ": 807,
      "ēĜ": 808,
      "ėĖĖĕĖĖĖĖĖ": 809,
      "ėėĖēĖĖ": 810,
      "ēĖĖĕĖ": 811,
      "ĘĖĖĔėĖ": 812,
      "ĕėĖĔėĖ": 813,
      "ėėĖĖĖĖĖĖĖ": 814,
      "ěĕė": 815,
      "ėĔĕĖ": 816,
      "ěėė": 817,
      "ĒĔė": 818,
      "đđ": 819,
      "ĕĖĖĖĖĖĖĖĖĖĖĖ": 820,
      "ęĜĖ": 821,
      "ĖęĖĖĖĖ": 822,
      "Ėĕĕ": 823,
      "ĔĞ": 824,
      "ĔďĖ": 825,
      "ĘĘė": 826,
      "ėĖĖĚĖĖ": 827,
      "ĚĎ": 828,
      "ėėĖĔĕĖ": 829,
      "ėėĕĕ": 830,
      "ĖĖĖĖĖĖĖĖĖĖĖ": 831,
      "ĕĕĖĘĕĖ": 832,
      "ėęĕĖ": 833,
      "ĒĖĖĕĖĖ": 834,
      "ėĕĖĔĕĖ": 835,
      "ĕĞĖ": 836,
      "ėĖėĖĖ": 837,
      "ĕĖĖėĖĖėĖĖ": 838,
      "ėėĖĘĕĖ": 839,
      "ėĕĖė": 840,
      "ęĖĖēĖĖ": 841,
      "ĕĕĖĔėĖ": 842,
      "Ĝĕĕ": 843,
      "ĖĎĖ": 844,
      "ėĖĖĔĖ": 845,
      "ĒĎ": 846,
      "ĖėĖėĖĖ": 847,
      "đĕĕ": 848,
      "ĚĖĖĕĖĖ": 849,
      "ĒĘė": 850,
      "ĕĖĖĔĖ": 851,
      "ĚĔ": 852,
      "ėĞĖ": 853,
      "ĕĕĕė": 854,
      "ĕĕĖĘėĖ": 855,
      "ĖĞĖ": 856,
      "Ēě": 857,
      "ėĒĖĖ": 858,
      "ĞĕĖ": 859,
      "ėĎĖ": 860,
      "Ęğ": 861,
      "ĔĘĕ": 862,
      "ĚĖĖėĖĖ": 863,
      "ēĖĖęĖĖ": 864,
      "ėĖĖĘĖ": 865,
      "Ĝē": 866,
      "ĖėĖĕĖĖ": 867,
      "ėėĖĘėĖ": 868,
      "ėĕĖĘėĖ": 869,
      "ēėĖĕĖĖ": 870,
      "ĔĖĖĘėĖ": 871,
      "ėęĖĖĖĖ": 872,
      "ęĕĖĖĕĖ": 873,
      "ĕđĖĖ": 874,
      "ěĐ": 875,
      "ěĖĖĕĖ": 876,
      "ęėĖėĖĖ": 877,
      "ėĔėĖ": 878,
      "ęėĘ": 879,
      "ĚĜ": 880,
      "ėĖĖĖĕĖĖĖĖ": 881,
      "ėėĖĔėĖ": 882,
      "ĒĒĖ": 883,
      "*Ė": 884,
      "ėĖĖĕĖĖĕĖĖ": 885,
      "ēĕĔ": 886,
      "ēĕĖĕĖĖ": 887,
      "ĕėĖĔĕĖ": 888,
      "Đėė": 889,
      "ĘĘĖĖ": 890,
      "Ĝėĕ": 891,
      "ĘĕĖęĖĖ": 892,
      "ĘĕĖĕĕĖ": 893,
      "ĔĔĖĖ": 894,
      "ęĝ": 895,
      "Đē": 896,
      "Đĕė": 897,
      "ęđĖ": 898,
      "ĕęĖĖĖĖ": 899,
      "đĚ": 900,
      "ĜĒ": 901,
      "ĎėĖ": 902,
      "ĎĕĖ": 903,
      "ėĖĖęĕĖ": 904,
      "ĘĕĖēĖĖ": 905,
      "ĄĖ": 906,
      "ĖėĖĖĕĖ": 907,
      "ĕėĖĘėĖ": 908,
      "ĕĕĔĖ": 909,
      "ğĖĖ": 910,
      "ĞėĖ": 911,
      "ĕĖĖĖĕĖĖĖĖ": 912,
      "ĘĘĖĖĖĖ": 913,
      "ĖĕĖĕĖĖ": 914,
      "ĒěĖ": 915,
      "ěēĖ": 916,
      "ĚĖĕ": 917,
      "ĖĔ": 918,
      "ĔėĖėĕĖ": 919,
      "ęėĖĕĖĖ": 920,
      "ĖĜ": 921,
      "ĕĕĖĕĖ": 922,
      "ěě": 923,
      "đēĖ": 924,
      "ĔĘĖĖĖĖ": 925,
      "ęĕĘ": 926,
      "ĕĖĖĘĖ": 927,
      "đėĕ": 928,
      "ěęĖ": 929,
      "ĔėĖĕėĖ": 930,
      "ĚĘ": 931,
      "ĕėĖĕĖ": 932,
      "đĐ": 933,
      "ęĔė": 934,
      "Ė,Ė": 935,
      "ėĖĖĒĖĖ": 936,
      "ĕĕėĕ": 937,
      "ĘėĖĕĕĖ": 938,
      "ĝĔĖ": 939,
      "ĕėĖėĖ": 940,
      "ėĖĖĖėĖĖĖĖ": 941,
      "ėėĖėĖ": 942,
      "ěĘĕ": 943,
      "ĘďĖ": 944,
      "ėĘĕė": 945,
      "ęĕĖĘĖĖ": 946,
      "ęĕĖĔĖĖ": 947,
      "ĚĖĖĘĖĖ": 948,
      "ĖĕĖėĖĖ": 949,
      "ĕĖĖėĖĖĕĖĖ": 950,
      "ēėĔ": 951,
      "ĖĘ": 952,
      "ėęėĖ": 953,
      "ĕĔĖĖĖĖĖ": 954,
      "ĐĒ": 955,
      "ėĕĖĕĖ": 956,
      "ĘĔĖĖĖĖ": 957,
      "ęĕĔ": 958,
      "ĘĕĖĘĕĖ": 959,
      "ĕĕĖėĖ": 960,
      "ĚĒĖ": 961,
      "ēėĖėĖĖ": 962,
      "ēĔĕ": 963,
      "#Ė": 964,
      "ĒĖĖĔĖĖ": 965,
      "ĘĔĖĖ": 966,
      "ĔĕĖĕĕĖ": 967,
      "ĚĕĖĖĖĖ": 968,
      "ĘąĖ": 969,
      "ĔĕĖėėĖ": 970,
      "ēĕĖėĖĖ": 971,
      "ĒĖĖėĖĖ": 972,
      "ęĘė": 973,
      "ĔĘĖĖ": 974,
      "Ěė": 975,
      "ęĕĖĖėĖ": 976,
      "ėĕĖėĖ": 977,
      "ĔėĖēĖĖ": 978,
      ")Ė": 979,
      "ēėĘ": 980,
      "ĘĕĖėėĖ": 981,
      "ėĘĖĖĕĖ": 982,
      "ĒĔ": 983,
      "đĈ": 984,
      "ęĖĖėĕĖ": 985,
      "ĔąĖ": 986,
      "ĘėĖėėĖ": 987,
      "ěĈ": 988,
      "ďĘĖ": 989,
      "ęĖĖĕĕĖ": 990,
      "ĖēĖĖĖĖ": 991,
      "ĔĕĖēĖĖ": 992,
      "ĚĖė": 993,
      "ĚĖĖĔĖĖ": 994,
      "ĕĖĖĖėĖĖĖĖ": 995,
      "ĚěĖ": 996,
      "ĕĔĕĕ": 997,
      "ĕĘĖĖĕĖ": 998,
      "ēĐĖ": 999,
      "ėĘėė": 1000,
      "ĘĚĖĖ": 1001,
      "ĕĖĖĖĖĖĘĖĖ": 1002,
      "ėėĖĕĖ": 1003,
      "ěď": 1004,
      "ēĕĘ": 1005,
      "ēėĖĔĖĖ": 1006,
      "ęėĔ": 1007,
      "ĘĕĖĔėĖ": 1008,
      "đď": 1009,
      "ėĖĖĖĖĖĔĖĖ": 1010,
      "ėėĖĕ": 1011,
      "đą": 1012,
      "ėĕĖĕ": 1013,
      "ėĖĖĕ": 1014,
      "ĕĖĖĖĖĖĔĖĖ": 1015,
      "ĖĘĖĖ": 1016,
      "Ĝę": 1017,
      "ĕ,Ė": 1018,
      "ēėĖĖĕĖ": 1019,
      "ĘėĖęĖĖ": 1020,
      "ėėėĕ": 1021,
      "ėĖĖĖĖĖĘĖĖ": 1022,
      "ĔĕĖėĕĖ": 1023
    },
    "merges": [
      [
        "Ė",
        "Ė"
      ],
      [
        "ĕ",
        "Ė"
      ],
      [
        "ė",
        "Ė"
      ],
      [
        "ĕ",
        "ĖĖ"
      ],
      [
        "ė",
        "ĖĖ"
      ],
      [
        "ĖĖ",
        "ĖĖ"
      ],
      [
        "Ę",
        "ĖĖ"
      ],
      [
        "Ĕ",
        "ĖĖ"
      ],
      [
        "Ę",
        "Ė"
      ],
      [
        "Ĕ",
        "Ė"
      ],
      [
        "ĖĖ",
        "Ė"
      ],
      [
        "ė",
        "ĕĖ"
      ],
      [
        "ĕ",
        "ĕĖ"
      ],
      [
        "ĕ",
        "ėĖ"
      ],
      [
        "ė",
        "ėĖ"
      ],
      [
        "ĕ",
        "ĕ"
      ],
      [
        "ė",
        "ė"
      ],
      [
        "ę",
        "Ė"
      ],
      [
        "ę",
        "ĖĖ"
      ],
      [
        "ē",
        "ĖĖ"
      ],
      [
        "ĖĖĖĖ",
        "Ė"
      ],
      [
        "Ę",
        "ĕĖ"
      ],
      [
        "ĕ",
        "ė"
      ],
      [
        "ē",
        "Ė"
      ],
      [
        "Ĕ",
        "ĕĖ"
      ],
      [
        "Ĕ",
        "ėĖ"
      ],
      [
        "Ę",
        "ėĖ"
      ],
      [
        "Ě",
        "Ė"
      ],
      [
        "ĕĖĖ",
        "ĖĖ"
      ],
      [
        "ė",
        "ĕ"
      ],
      [
        "ėĖĖ",
        "ĖĖ"
      ],
      [
        "Ė",
        "ėĖ"
      ],
      [
        "Ė",
        "ĕĖ"
      ],
      [
        "Ē",
        "Ė"
      ],
      [
        "ėĖĖ",
        "ĖĖĖ"
      ],
      [
        "Ě",
        "ĖĖ"
      ],
      [
        "ĕĖĖ",
        "ĖĖĖ"
      ],
      [
        "ę",
        "ĕĖ"
      ],
      [
        "ě",
        "Ė"
      ],
      [
        "Ē",
        "ĖĖ"
      ],
      [
        "ē",
        "ėĖ"
      ],
      [
        "ē",
        "ĕĖ"
      ],
      [
        "ĕ",
        "Ĕ"
      ],
      [
        "ę",
        "ėĖ"
      ],
      [
        "ė",
        "Ę"
      ],
      [
        "ėĖĖ",
        "ėĖĖ"
      ],
      [
        "ĕĖĖ",
        "ĕĖĖ"
      ],
      [
        "ĕ",
        "Ę"
      ],
      [
        "ė",
        "Ĕ"
      ],
      [
        "đ",
        "Ė"
      ],
      [
        "ĕ",
        "ĘĖ"
      ],
      [
        "ėĖĖ",
        "ĕĖĖ"
      ],
      [
        "ĕ",
        "ĕĖĖ"
      ],
      [
        "ė",
        "ĘĖ"
      ],
      [
        "Ĝ",
        "Ė"
      ],
      [
        "ė",
        "ĔĖ"
      ],
      [
        "ĕ",
        "ĔĖ"
      ],
      [
        "ėĖĖ",
        "Ė"
      ],
      [
        "ė",
        "ĕĖĖ"
      ],
      [
        "ĖĖĖĖ",
        "ĖĖ"
      ],
      [
        "Ć",
        "Ė"
      ],
      [
        "Ĕ",
        "ĕ"
      ],
      [
        "ě",
        "ĖĖ"
      ],
      [
        "Ĕ",
        "ė"
      ],
      [
        "Ě",
        "ĕĖ"
      ],
      [
        "ĕĖĖ",
        "Ė"
      ],
      [
        "Ę",
        "ĕ"
      ],
      [
        "ėĖĖ",
        "ĕĖ"
      ],
      [
        "Ę",
        "ė"
      ],
      [
        "Ē",
        "ėĖ"
      ],
      [
        "ĕĖĖ",
        "ėĖĖ"
      ],
      [
        "Đ",
        "Ė"
      ],
      [
        "Ē",
        "ĕĖ"
      ],
      [
        "đ",
        "ĖĖ"
      ],
      [
        "ėĖĖ",
        "ėĖ"
      ],
      [
        "ĕ",
        "ē"
      ],
      [
        "Ě",
        "ėĖ"
      ],
      [
        "Ĕ",
        "ĘĖ"
      ],
      [
        "ė",
        "ę"
      ],
      [
        "Ę",
        "ĖĖĖĖĖ"
      ],
      [
        "Ę",
        "ĘĖ"
      ],
      [
        "Ė",
        "ĘĖ"
      ],
      [
        "Ę",
        "ĔĖ"
      ],
      [
        "ĝ",
        "Ė"
      ],
      [
        "Ĕ",
        "ĖĖĖĖĖ"
      ],
      [
        "ĖĖĖĖ",
        "ĖĖĖĖ"
      ],
      [
        "ĕ",
        "ę"
      ],
      [
        "Ĕ",
        "ĔĖ"
      ],
      [
        "ć",
        "Ė"
      ],
      [
        "ė",
        "ē"
      ],
      [
        "ė",
        "ęĖ"
      ],
      [
        "ĕ",
        "ęĖ"
      ],
      [
        "ĕĖĖ",
        "ĕĖ"
      ],
      [
        "ėĖĖ",
        "ĘĖĖ"
      ],
      [
        "Ĕ",
        "Ĕ"
      ],
      [
        "Ę",
        "Ę"
      ],
      [
        "ď",
        "Ė"
      ],
      [
        "ėĖĖ",
        "ĔĖĖ"
      ],
      [
        "ĕĖĖ",
        "ėĖ"
      ],
      [
        "ė",
        "ĕĖĖĖĖ"
      ],
      [
        "ė",
        "ėĖĖ"
      ],
      [
        "ĖĖĖĖ",
        "ĖĖĖ"
      ],
      [
        "Ė",
        "ęĖ"
      ],
      [
        "ĕĖĖ",
        "ĔĖĖ"
      ],
      [
        "ĕĖĖ",
        "ĘĖĖ"
      ],
      [
        "Ę",
        "Ĕ"
      ],
      [
        "ĕ",
        "Ē"
      ],
      [
        "Ė",
        "ĔĖ"
      ],
      [
        "ė",
        "Ě"
      ],
      [
        "ĕ",
        "ėĖĖ"
      ],
      [
        "ĕ",
        "ēĖ"
      ],
      [
        "Ę",
        "Ć"
      ],
      [
        "Ĕ",
        "Ć"
      ],
      [
        "ĕ",
        "ĕĖĖĖĖ"
      ],
      [
        "Ė",
        "ć"
      ],
      [
        "Ĝ",
        "ĖĖ"
      ],
      [
        "Ĕ",
        "Ę"
      ],
      [
        "ĕ",
        "ėė"
      ],
      [
        "ĕ",
        "ĔĖĖ"
      ],
      [
        "ĕ",
        "ėĖĖĖĖ"
      ],
      [
        "ě",
        "ĕĖ"
      ],
      [
        "ė",
        "ēĖ"
      ],
      [
        "ė",
        "Ē"
      ],
      [
        "ė",
        "ĕĕ"
      ],
      [
        "ē",
        "ĘĖ"
      ],
      [
        "ĘĖĖ",
        "ėĖĖ"
      ],
      [
        "Ė",
        "Ć"
      ],
      [
        "ĘĖĖ",
        "ĕĖĖ"
      ],
      [
        "ĕ",
        "Ě"
      ],
      [
        "ė",
        "ĚĖ"
      ],
      [
        "đ",
        "ėĖ"
      ],
      [
        "đ",
        "ĕĖ"
      ],
      [
        "ą",
        "Ė"
      ],
      [
        "Ď",
        "Ė"
      ],
      [
        "ė",
        "ėĖĖĖĖ"
      ],
      [
        "Đ",
        "ĖĖ"
      ],
      [
        "ę",
        "ĔĖ"
      ],
      [
        "ĕ",
        "Ć"
      ],
      [
        "ĕ",
        "ĚĖ"
      ],
      [
        "Ğ",
        "Ė"
      ],
      [
        "ė",
        "Ć"
      ],
      [
        "ę",
        "ĘĖ"
      ],
      [
        "Ę",
        "ę"
      ],
      [
        "Ĕ",
        "ē"
      ],
      [
        "ĔĖĖ",
        "ĕĖĖ"
      ],
      [
        "ė",
        "ć"
      ],
      [
        "Ė",
        "ĚĖ"
      ],
      [
        "ě",
        "ėĖ"
      ],
      [
        "Ĕ",
        "ęĖ"
      ],
      [
        "ē",
        "ĔĖ"
      ],
      [
        "Ę",
        "ęĖ"
      ],
      [
        "ĔĖĖ",
        "ėĖĖ"
      ],
      [
        "ĕ",
        "ć"
      ],
      [
        "Ę",
        "ē"
      ],
      [
        "ė",
        "ĘĖĖ"
      ],
      [
        "ė",
        "ĕė"
      ],
      [
        "ĕ",
        "đ"
      ],
      [
        "ėĕĖ",
        "ĕĖĖ"
      ],
      [
        "ėĖĖ",
        "ĖĕĖ"
      ],
      [
        "Ĕ",
        "ę"
      ],
      [
        "ėĕĖ",
        "ėĖĖ"
      ],
      [
        "ė",
        "ě"
      ],
      [
        "ĕĖĖ",
        "ĖĕĖ"
      ],
      [
        "ĖĖĖ",
        "ĕĖ"
      ],
      [
        "ė",
        "đ"
      ],
      [
        "ėĖĖ",
        "ĖėĖ"
      ],
      [
        "Ė",
        "ēĖ"
      ],
      [
        "Ę",
        "ĕĕ"
      ],
      [
        "ĕĕĖ",
        "ĕĖĖ"
      ],
      [
        "Ė",
        "ą"
      ],
      [
        "ĘĖĖ",
        "ĘĖĖ"
      ],
      [
        "ĖĖĖ",
        "ėĖ"
      ],
      [
        "ĕĖĖ",
        "ĖėĖ"
      ],
      [
        "ĕĕĖ",
        "ėĖĖ"
      ],
      [
        ",",
        "Ė"
      ],
      [
        "ĕ",
        "ě"
      ],
      [
        "ĕ",
        "ĘĖĖ"
      ],
      [
        "ę",
        "ĖĖĖĖĖ"
      ],
      [
        "Ĕ",
        "ėė"
      ],
      [
        "ĕ",
        "Đ"
      ],
      [
        "ĔĖĖ",
        "ĔĖĖ"
      ],
      [
        "Ĕ",
        "ēĖ"
      ],
      [
        "ĕėĖ",
        "ėĖĖ"
      ],
      [
        "ė",
        "ěĖ"
      ],
      [
        "ĕ",
        "ĒĖ"
      ],
      [
        "Ę",
        "ĕĖĖĖĖ"
      ],
      [
        "ė",
        "ĔĖĖ"
      ],
      [
        "ĕėĖ",
        "ĕĖĖ"
      ],
      [
        "Ĕ",
        "Ē"
      ],
      [
        "ėėĖ",
        "ėĖĖ"
      ],
      [
        "Ĕ",
        "ĕė"
      ],
      [
        "Ę",
        "Ě"
      ],
      [
        "ĕ",
        "ěĖ"
      ],
      [
        "ĕ",
        "ą"
      ],
      [
        "Ę",
        "ĚĖ"
      ],
      [
        "Ę",
        "ēĖ"
      ],
      [
        "ē",
        "ĖĖĖĖĖ"
      ],
      [
        "Ę",
        "Ē"
      ],
      [
        "Ė",
        "ěĖ"
      ],
      [
        "ė",
        "ą"
      ],
      [
        "ėėĖ",
        "ĕĖĖ"
      ],
      [
        "Ę",
        "ėė"
      ],
      [
        "Ĕ",
        "ĕĕ"
      ],
      [
        "ė",
        "Đ"
      ],
      [
        "Ĕ",
        "ĚĖ"
      ],
      [
        "ę",
        "ę"
      ],
      [
        "Ę",
        "ć"
      ],
      [
        "ė",
        "ĒĖ"
      ],
      [
        "Ĉ",
        "Ė"
      ],
      [
        "ė",
        "Ĝ"
      ],
      [
        "Ę",
        "ėĕ"
      ],
      [
        "ĘĖĖ",
        "ĔĖĖ"
      ],
      [
        "ē",
        "ē"
      ],
      [
        "Ĕ",
        "ć"
      ],
      [
        "ğ",
        "Ė"
      ],
      [
        "Ę",
        "ĖĖĖĖ"
      ],
      [
        "Ē",
        "ĘĖ"
      ],
      [
        "Ę",
        "ĕė"
      ],
      [
        "ĝ",
        "ĖĖ"
      ],
      [
        "Ĕ",
        "ĖĖĖĖ"
      ],
      [
        "ĕĖĖ",
        "ĖĖĖĖ"
      ],
      [
        "ę",
        "ē"
      ],
      [
        "Ĕ",
        "ĕĖĖĖĖ"
      ],
      [
        "Ě",
        "ĔĖ"
      ],
      [
        "ĕ",
        "ď"
      ],
      [
        "Ĕ",
        "ėĖĖĖĖ"
      ],
      [
        "ĕ",
        "ĕĕĖ"
      ],
      [
        "ē",
        "Ć"
      ],
      [
        "Ĕ",
        "Ě"
      ],
      [
        "ėĖĖ",
        "ėĕĖ"
      ],
      [
        "ę",
        "Ć"
      ],
      [
        "ĔĖĖ",
        "ĘĖĖ"
      ],
      [
        "ē",
        "ęĖ"
      ],
      [
        "ę",
        "ĕĕ"
      ],
      [
        "ė",
        "ęĖĖ"
      ],
      [
        "Ė",
        "ĒĖ"
      ],
      [
        "ĕ",
        "Ĝ"
      ],
      [
        "ė",
        "ď"
      ],
      [
        "Ę",
        "ėĖĖĖĖ"
      ],
      [
        "ĕ",
        "ēĖĖ"
      ],
      [
        "ėĖĖ",
        "ĖĖĖĖ"
      ],
      [
        "ĕĖĖ",
        "ĖĖĖĖĖ"
      ],
      [
        "Ē",
        "ĔĖ"
      ],
      [
        "Ě",
        "ĘĖ"
      ],
      [
        "Ĝ",
        "ĕĖ"
      ],
      [
        "ėĖĖ",
        "ĕėĖ"
      ],
      [
        "ĕĖĖ",
        "ėĕĖ"
      ],
      [
        "ĕĖĖ",
        "ĖĖĖĖĖĖ"
      ],
      [
        "ę",
        "ęĖ"
      ],
      [
        "ėĖĖ",
        "ĕĕĖ"
      ],
      [
        "Ĕ",
        "đ"
      ],
      [
        "ĕ",
        "ĕėĖ"
      ],
      [
        "Đ",
        "ėĖ"
      ],
      [
        "Đ",
        "ĕĖ"
      ],
      [
        "ĔĖ",
        "ė"
      ],
      [
        "Ę",
        "đ"
      ],
      [
        "ėĖĖ",
        "ĖĖĖĖĖĖ"
      ],
      [
        "ėĕĖĖ",
        "ĕĖ"
      ],
      [
        "ĕĖĖ",
        "ĕėĖ"
      ],
      [
        "ėĖĖ",
        "ėėĖ"
      ],
      [
        "ē",
        "ėė"
      ],
      [
        "ę",
        "ėĕ"
      ],
      [
        "Ĕ",
        "ėĕ"
      ],
      [
        "ĕĖĖ",
        "ĕĕĖ"
      ],
      [
        "ē",
        "ę"
      ],
      [
        "ē",
        "ĕė"
      ],
      [
        "ĖĖ",
        "ĕĖ"
      ],
      [
        "Ę",
        "ě"
      ],
      [
        "ė",
        "ėĕĖ"
      ],
      [
        "ėĖĖ",
        "ęĖĖ"
      ],
      [
        "ĕ",
        "đĖ"
      ],
      [
        "ĘĖĖ",
        "ĖĕĖ"
      ],
      [
        "Ė",
        "ē"
      ],
      [
        "Ĝ",
        "ėĖ"
      ],
      [
        "ėĕĖĖ",
        "ėĖ"
      ],
      [
        "ĕ",
        "Ď"
      ],
      [
        "ĕ",
        "ėĕĖ"
      ],
      [
        "ėĖĖ",
        "ĖĖĖĖĖ"
      ],
      [
        "Ę",
        "ěĖ"
      ],
      [
        "ĕĖ",
        "ė"
      ],
      [
        "ď",
        "ĖĖ"
      ],
      [
        "ĕĖĖ",
        "ėėĖ"
      ],
      [
        "Ė",
        "ę"
      ],
      [
        "ėĕĖ",
        "ĔĖĖ"
      ],
      [
        "Ĕ",
        "ěĖ"
      ],
      [
        "ĘĖ",
        "ė"
      ],
      [
        "ĕ",
        "ėėĖ"
      ],
      [
        "ĕĕĖĖ",
        "ĕĖ"
      ],
      [
        "ĕĕĖ",
        "ĔĖĖ"
      ],
      [
        "ė",
        "Ď"
      ],
      [
        "ėĖĖ",
        "ēĖĖ"
      ],
      [
        "ėĕĖ",
        "ĘĖĖ"
      ],
      [
        "Ĕ",
        "ą"
      ],
      [
        "Ę",
        "ą"
      ],
      [
        "ĕĖĖ",
        "ēĖĖ"
      ],
      [
        "ę",
        "Ē"
      ],
      [
        "Ĕ",
        "ĒĖ"
      ],
      [
        "ė",
        "ĝ"
      ],
      [
        "ĕ",
        "ėĖĖĕĖ"
      ],
      [
        "ĕĖĖ",
        "ęĖĖ"
      ],
      [
        "ė",
        "ĜĖ"
      ],
      [
        "ėĖ",
        "ė"
      ],
      [
        "ĕ",
        "ĜĖ"
      ],
      [
        "Ė",
        "ĜĖ"
      ],
      [
        "Ė",
        "ĆĖ"
      ],
      [
        "ē",
        "Ē"
      ],
      [
        "ĔĖĖ",
        "ĖĕĖ"
      ],
      [
        "ĕĕĖĖ",
        "ėĖ"
      ],
      [
        "Ĕ",
        "ě"
      ],
      [
        "ĘĖĖ",
        "ĕĖ"
      ],
      [
        "ĔĖĖ",
        "Ė"
      ],
      [
        "ĘĖĖ",
        "ĖėĖ"
      ],
      [
        "ė",
        "ėėĖ"
      ],
      [
        "Ě",
        "ē"
      ],
      [
        "ĕ",
        "ėĖĖėĖ"
      ],
      [
        "ĕ",
        "ĔĕĖ"
      ],
      [
        "Ę",
        "Đ"
      ],
      [
        "Ě",
        "ę"
      ],
      [
        "Ĕ",
        "Đ"
      ],
      [
        "ĘĖĖ",
        "Ė"
      ],
      [
        "Ę",
        "ĆĖ"
      ],
      [
        "ė",
        "ėĖĖĕĖ"
      ],
      [
        "ē",
        "ēĖ"
      ],
      [
        "ĔĖĖ",
        "ĖėĖ"
      ],
      [
        "ē",
        "ć"
      ],
      [
        "ė",
        "đĖ"
      ],
      [
        "Ĕ",
        "ĆĖ"
      ],
      [
        "ę",
        "ėė"
      ],
      [
        "ĕ",
        "ĝ"
      ],
      [
        "ėĖĖ",
        "ĘĕĖ"
      ],
      [
        "ĕĕĖ",
        "ĘĖĖ"
      ],
      [
        "Ę",
        "ĒĖ"
      ],
      [
        "Ė",
        "Ē"
      ],
      [
        "Ě",
        "ĕĕ"
      ],
      [
        "ę",
        "ć"
      ],
      [
        "ē",
        "ĕĕ"
      ],
      [
        "Ġ",
        "Ė"
      ],
      [
        "ęĖĖ",
        "ĕĖĖ"
      ],
      [
        "Ė",
        "đĖ"
      ],
      [
        "ę",
        "Ě"
      ],
      [
        "Ė",
        "ćĖ"
      ],
      [
        "ė",
        "ĆĖ"
      ],
      [
        "ĔĖĖ",
        "ĕĖ"
      ],
      [
        "ĘĖ",
        "ĕ"
      ],
      [
        "ęĖĖ",
        "ėĖĖ"
      ],
      [
        "ĕ",
        "ĆĖ"
      ],
      [
        "Ē",
        "ē"
      ],
      [
        "ĕėĖ",
        "ĘĖĖ"
      ],
      [
        "ę",
        "ēĖ"
      ],
      [
        "ė",
        "ėĖĖėĖ"
      ],
      [
        "ē",
        "ĚĖ"
      ],
      [
        "ę",
        "ĕė"
      ],
      [
        "ĕĖ",
        "ĕĖ"
      ],
      [
        "ĘĕĖ",
        "ĕĖĖ"
      ],
      [
        "ėėĖ",
        "ĘĖĖ"
      ],
      [
        "Ĕ",
        "ď"
      ],
      [
        "ĕėĖ",
        "ĔĖĖ"
      ],
      [
        "ė",
        "ĕĕĖ"
      ],
      [
        "Ę",
        "Ĝ"
      ],
      [
        "ĖĖĖĖ",
        "ĕĖĖ"
      ],
      [
        "ĕ",
        "ęĖĖ"
      ],
      [
        "ę",
        "ĚĖ"
      ],
      [
        "ĘĖĖ",
        "ėĖ"
      ],
      [
        "ĘĕĖ",
        "ėĖĖ"
      ],
      [
        "Ę",
        "ď"
      ],
      [
        "ėėĖ",
        "ĔĖĖ"
      ],
      [
        "ēĖĖ",
        "ĕĖĖ"
      ],
      [
        "Ě",
        "ėĕ"
      ],
      [
        "ė",
        "ĕėĖ"
      ],
      [
        "ę",
        "Ĕ"
      ],
      [
        "ėĖ",
        "ėĖ"
      ],
      [
        "ėĕĖ",
        "ėĕĖ"
      ],
      [
        "ĕ",
        "ĔėĖ"
      ],
      [
        "Ė",
        "ėĖĖĖĖ"
      ],
      [
        "Ē",
        "ėė"
      ],
      [
        "đ",
        "ĘĖ"
      ],
      [
        "ē",
        "Ĕ"
      ],
      [
        "ė",
        "Ğ"
      ],
      [
        "ě",
        "ĔĖ"
      ],
      [
        "ĕ",
        "Ĉ"
      ],
      [
        "ė",
        "Ĉ"
      ],
      [
        "ę",
        "đ"
      ],
      [
        "ėĖĖ",
        "ĔėĖ"
      ],
      [
        "ęĖĖ",
        "ĘĖĖ"
      ],
      [
        "ĕ",
        "ĐĖ"
      ],
      [
        "Ē",
        "ĕė"
      ],
      [
        "ĕĖĖĖĖĖ",
        "ĕĖĖ"
      ],
      [
        "ėĖ",
        "ĕĖ"
      ],
      [
        "Ė",
        "Ĉ"
      ],
      [
        "Ė",
        "Ě"
      ],
      [
        "ę",
        "Ę"
      ],
      [
        "Ē",
        "Ć"
      ],
      [
        "ĔĖ",
        "ĕ"
      ],
      [
        "ėĖĖ",
        "ĔĕĖ"
      ],
      [
        "ė",
        "ĚĖĖ"
      ],
      [
        "ĔĖĖ",
        "ėĖ"
      ],
      [
        "ėĖĖ",
        "ĘėĖ"
      ],
      [
        "Ė",
        "ĕĖĖĖĖ"
      ],
      [
        "ē",
        "ėĕ"
      ],
      [
        "ē",
        "đ"
      ],
      [
        "ĘĕĖ",
        "ĘĖĖ"
      ],
      [
        "ĕ",
        "Ğ"
      ],
      [
        "Ē",
        "ę"
      ],
      [
        "ėĖĖĖĖĖ",
        "ĕĖĖ"
      ],
      [
        "ĕĕ",
        "ė"
      ],
      [
        "ē",
        "Ě"
      ],
      [
        "ė",
        "ćĖ"
      ],
      [
        "ę",
        "ĕĖĖĖĖ"
      ],
      [
        "Ė",
        "đ"
      ],
      [
        "ėĕĖ",
        "ĕėĖ"
      ],
      [
        "ĕĖĖĖĖĖ",
        "ėĖĖ"
      ],
      [
        "ĔĕĖ",
        "ĕĖĖ"
      ],
      [
        "ēĖĖ",
        "ĔĖĖ"
      ],
      [
        "ēĖ",
        "ė"
      ],
      [
        "Ę",
        "Ď"
      ],
      [
        "ęĖĖ",
        "ĔĖĖ"
      ],
      [
        "ĔėĖ",
        "ĕĖĖ"
      ],
      [
        "đ",
        "ĔĖ"
      ],
      [
        "ĕ",
        "ćĖ"
      ],
      [
        "ēĖĖ",
        "ėĖĖ"
      ],
      [
        "Ĕ",
        "ĜĖ"
      ],
      [
        "Ę",
        "ĜĖ"
      ],
      [
        "ĘėĖ",
        "ĕĖĖ"
      ],
      [
        "ĘĕĖ",
        "ĔĖĖ"
      ],
      [
        "Ě",
        "Ć"
      ],
      [
        "Ĕ",
        "Ď"
      ],
      [
        "ĕĕĖĖ",
        "Ė"
      ],
      [
        "ĖĖĖĖ",
        "ėĖĖ"
      ],
      [
        "Ě",
        "Ē"
      ],
      [
        "ēĖĖ",
        "ĘĖĖ"
      ],
      [
        "Ē",
        "ęĖ"
      ],
      [
        "Ę",
        "ĕĖĖĕĖ"
      ],
      [
        "ĕ",
        "ĒĖĖ"
      ],
      [
        "Ĕ",
        "đĖ"
      ],
      [
        "ĕĕĖ",
        "ĕĕĖ"
      ],
      [
        "ě",
        "ĘĖ"
      ],
      [
        "Ę",
        "ĖĖĖĖĖĖĖĖ"
      ],
      [
        "ę",
        "ě"
      ],
      [
        "ėĖĖĖĖĖ",
        "ėĖĖ"
      ],
      [
        "ėė",
        "ė"
      ],
      [
        "Ē",
        "Ē"
      ],
      [
        "ē",
        "ė"
      ],
      [
        "ĕĖ",
        "ĕĖĖ"
      ],
      [
        "ė",
        "ĐĖ"
      ],
      [
        "Ĕ",
        "Ĉ"
      ],
      [
        "ĕėĖ",
        "ĕėĖ"
      ],
      [
        "Ę",
        "ĕĖĖ"
      ],
      [
        "Ė",
        "ĐĖ"
      ],
      [
        "Ĕ",
        "Ĝ"
      ],
      [
        "ėĕĖ",
        "ĕĕĖ"
      ],
      [
        "ē",
        "Ę"
      ],
      [
        "ĝ",
        "ĕĖ"
      ],
      [
        "ĕ",
        "ĕĖĖĖĖĖ"
      ],
      [
        "Ě",
        "Ě"
      ],
      [
        "ĔėĖ",
        "ėĖĖ"
      ],
      [
        "Ę",
        "Ĉ"
      ],
      [
        "ē",
        "ėĖĖĖĖ"
      ],
      [
        "ĖĖ",
        "ėĖ"
      ],
      [
        "ē",
        "ą"
      ],
      [
        "Ĕ",
        "ĕĖĖ"
      ],
      [
        "Ĕ",
        "ĖĖĖĖĖĖĖĖ"
      ],
      [
        "ę",
        "ė"
      ],
      [
        "ĘėĖ",
        "ėĖĖ"
      ],
      [
        "ĖĖĖĖ",
        "ĕĖ"
      ],
      [
        "ėĕĖ",
        "ėėĖ"
      ],
      [
        "ĘĖĖ",
        "ęĖĖ"
      ],
      [
        "ĖĖĖĖ",
        "ĖĖĖĖĖĖ"
      ],
      [
        "ď",
        "ėĖ"
      ],
      [
        "Ě",
        "ĖĖĖĖĖ"
      ],
      [
        "ĔĕĖ",
        "ėĖĖ"
      ],
      [
        "ĔĕĖ",
        "ĔĖĖ"
      ],
      [
        "ĘĖĖ",
        "ĕĕĖ"
      ],
      [
        "Ę",
        "Ĕĕ"
      ],
      [
        "Ę",
        "đĖ"
      ],
      [
        "ėĖ",
        "ĕ"
      ],
      [
        "ď",
        "ĕĖ"
      ],
      [
        "ĕ",
        "ĝĖ"
      ],
      [
        "ē",
        "ĕĖĖĖĖ"
      ],
      [
        "Ě",
        "ęĖ"
      ],
      [
        "ė",
        "ēĖĖ"
      ],
      [
        "ĘĖĖ",
        "ėėĖ"
      ],
      [
        "Ē",
        "ć"
      ],
      [
        "ę",
        "ą"
      ],
      [
        "ė",
        "ĝĖ"
      ],
      [
        "Ę",
        "ĕĖĖėĖ"
      ],
      [
        "ĘĖĖ",
        "ėĕĖ"
      ],
      [
        "ē",
        "ěĖ"
      ],
      [
        "ę",
        "Đ"
      ],
      [
        "ĕĖĖ",
        "ĘĕĖ"
      ],
      [
        "ĕ",
        "ėĖĖĖ"
      ],
      [
        "ĘĖĖ",
        "ĕėĖ"
      ],
      [
        "Ė",
        "Đ"
      ],
      [
        "Ĕ",
        "ėĖĖ"
      ],
      [
        "ėĕĖĖ",
        "Ė"
      ],
      [
        "Ė",
        "ĝĖ"
      ],
      [
        "ėėĖ",
        "ėėĖ"
      ],
      [
        "ę",
        "ĖĖĖĕĖ"
      ],
      [
        "ę",
        "ėĖĖĖĖ"
      ],
      [
        "ĔėĖ",
        "ĔĖĖ"
      ],
      [
        "ĖĖĖĖ",
        "ĔĖĖ"
      ],
      [
        "Ĕ",
        "ĕĔ"
      ],
      [
        "Ě",
        "ć"
      ],
      [
        "Ę",
        "ėĖĖ"
      ],
      [
        "ĖĖĖĖĖ",
        "ĕĖ"
      ],
      [
        "Ĕ",
        "ĕĖĖĕĖ"
      ],
      [
        "ĕĕĖ",
        "ĕėĖ"
      ],
      [
        "ęĖĖ",
        "ĕĖ"
      ],
      [
        "Ě",
        "ĕė"
      ],
      [
        "Ė",
        "ąĖ"
      ],
      [
        "Ę",
        "Ęĕ"
      ],
      [
        "Ě",
        "ėė"
      ],
      [
        "Ğ",
        "ĖĖ"
      ],
      [
        "ē",
        "Đ"
      ],
      [
        "ē",
        "ĒĖ"
      ],
      [
        "ĘėĖ",
        "ĔĖĖ"
      ],
      [
        "ę",
        "ěĖ"
      ],
      [
        "ĝ",
        "ėĖ"
      ],
      [
        "ė",
        "ĘĕĖ"
      ],
      [
        "ĘĖĖ",
        "ēĖĖ"
      ],
      [
        "Ė",
        "ĘĖĖĖĖ"
      ],
      [
        "ĕĕĖ",
        "ėėĖ"
      ],
      [
        "Ė",
        "ď"
      ],
      [
        "Ē",
        "ĖĖĖĖĖ"
      ],
      [
        "ĕėĖ",
        "ėĕĖ"
      ],
      [
        "ē",
        "ĖĖĖĕĖ"
      ],
      [
        "ĕĖĖ",
        "ĔėĖ"
      ],
      [
        "Ė",
        "Ď"
      ],
      [
        "ėė",
        "ĕ"
      ],
      [
        "Ĕ",
        "ėĖĖĕĖ"
      ],
      [
        "Ę",
        "ĝ"
      ],
      [
        "ĖĖĖĖĖĖĖĖ",
        "ĖĖĖĖĖ"
      ],
      [
        "ę",
        "ĕ"
      ],
      [
        "ėĘ",
        "ĖĖĖĖ"
      ],
      [
        "ě",
        "ĕĕ"
      ],
      [
        "!",
        "Ė"
      ],
      [
        "Ē",
        "ĕĕ"
      ],
      [
        "ĖĖĖĖ",
        "ėĖ"
      ],
      [
        "ęĖ",
        "ė"
      ],
      [
        "Ē",
        "ēĖ"
      ],
      [
        "Ę",
        "ėĖĖĕĖ"
      ],
      [
        "ęĖ",
        "ĕ"
      ],
      [
        "ĖĖĖĖĖ",
        "ėĖ"
      ],
      [
        "ĕĕĖ",
        "ėĕĖ"
      ],
      [
        "Ę",
        "ėĘ"
      ],
      [
        "ĕĘ",
        "ĖĖĖĖ"
      ],
      [
        "ėĕĖĖ",
        "ĖĖĖĖĖ"
      ],
      [
        "ĘėĖ",
        "ĘĖĖ"
      ],
      [
        "ę",
        "ĖĖĖėĖ"
      ],
      [
        "Ĕ",
        "ĕĖĖėĖ"
      ],
      [
        "Ē",
        "đ"
      ],
      [
        "ē",
        "ĕ"
      ],
      [
        "ĕĖ",
        "ėĖ"
      ],
      [
        "ē",
        "ě"
      ],
      [
        "ĕĕ",
        "ĕ"
      ],
      [
        "Ĕ",
        "ėĖĖėĖ"
      ],
      [
        "Ě",
        "đ"
      ],
      [
        "ėĖĖĖĖĖ",
        "ėĖ"
      ],
      [
        "ĕĖ",
        "ėĖĖ"
      ],
      [
        "ĕĖĖ",
        "ĔĕĖ"
      ],
      [
        "ėėĖ",
        "ėĕĖ"
      ],
      [
        "ĔĖĖ",
        "ēĖĖ"
      ],
      [
        "ę",
        "Ĕĕ"
      ],
      [
        "ĔĖĖ",
        "ĕėĖ"
      ],
      [
        "Ę",
        "ĕĘ"
      ],
      [
        "ę",
        "Ęĕ"
      ],
      [
        "ėėĖ",
        "ĕĕĖ"
      ],
      [
        "ĕĖ",
        "ĕ"
      ],
      [
        "Ĕ",
        "ėĘ"
      ],
      [
        "ē",
        "ĖĖĖėĖ"
      ],
      [
        "Ė",
        "ě"
      ],
      [
        "Ĕ",
        "ėĔ"
      ],
      [
        "ĕ",
        "ďĖ"
      ],
      [
        "ĔĖĖ",
        "ėĕĖ"
      ],
      [
        "ę",
        "ď"
      ],
      [
        "Ĕ",
        "Ĕė"
      ],
      [
        "ĕė",
        "ĕ"
      ],
      [
        "ėĔ",
        "ĖĖĖĖ"
      ],
      [
        "ėėĖ",
        "ĕėĖ"
      ],
      [
        "đ",
        "ėė"
      ],
      [
        "Ď",
        "ĖĖ"
      ],
      [
        "Ě",
        "ēĖ"
      ],
      [
        "ĔĖĖ",
        "ĕĕĖ"
      ],
      [
        "Ę",
        "ĕĔ"
      ],
      [
        "Ę",
        "ėĖĖėĖ"
      ],
      [
        "ě",
        "ėĕ"
      ],
      [
        "ę",
        "Ĉ"
      ],
      [
        "ē",
        "ď"
      ],
      [
        "ĔĖĖ",
        "ęĖĖ"
      ],
      [
        "ē",
        "Ĉ"
      ],
      [
        "ĔėĖ",
        "ĘĖĖ"
      ],
      [
        "ĕ",
        "ąĖ"
      ],
      [
        "ĕĖĖĖĖĖ",
        "ėĖ"
      ],
      [
        "ĔĕĖ",
        "ĘĖĖ"
      ],
      [
        "Ĕ",
        "ĕĘ"
      ],
      [
        "ę",
        "ĒĖ"
      ],
      [
        "ę",
        "ĖĖĖ"
      ],
      [
        "ė",
        "ğ"
      ],
      [
        "Ē",
        "Ě"
      ],
      [
        "đ",
        "ĕė"
      ],
      [
        "Ĕ",
        "ĐĖ"
      ],
      [
        "ĕĔ",
        "ĖĖĖĖ"
      ],
      [
        "Ĕ",
        "ĝ"
      ],
      [
        "ē",
        "ĖĖĖ"
      ],
      [
        "ėĖĖĖĖĖ",
        "ĕĖ"
      ],
      [
        "ĕĖĖ",
        "ĘėĖ"
      ],
      [
        "Ė",
        "ĔĖĖĖĖ"
      ],
      [
        "Ė",
        "ďĖ"
      ],
      [
        "ĕėĖ",
        "ĕĕĖ"
      ],
      [
        "ė",
        "ĘėĖ"
      ],
      [
        "ĕĕ",
        "ĕĕ"
      ],
      [
        "ĖĖĖĖĖĖ",
        "ėĖ"
      ],
      [
        "ę",
        "Ĝ"
      ],
      [
        "ėĖĖėĖĖ",
        "ėĖĖ"
      ],
      [
        "ĕ",
        "ĚĖĖ"
      ],
      [
        "Ě",
        "ě"
      ],
      [
        "ĕĖĖĖĖĖ",
        "ĕĖ"
      ],
      [
        "ė",
        "ąĖ"
      ],
      [
        "Ĝ",
        "ĔĖ"
      ],
      [
        "Ę",
        "ėĔ"
      ],
      [
        "ĕėĖ",
        "ėėĖ"
      ],
      [
        "ė",
        "ďĖ"
      ],
      [
        "ĕĕĖĖ",
        "ĖĖĖĖĖ"
      ],
      [
        "ĕ",
        "ēĕĖ"
      ],
      [
        "đ",
        "ē"
      ],
      [
        "Ē",
        "ėĕ"
      ],
      [
        "ĔĖĖ",
        "ėėĖ"
      ],
      [
        "Đ",
        "ĘĖ"
      ],
      [
        "ĘĖĖ",
        "ĘĕĖ"
      ],
      [
        "ęĖĖ",
        "ėĖ"
      ],
      [
        "ėė",
        "ėė"
      ],
      [
        "Ē",
        "ĚĖ"
      ],
      [
        "Ę",
        "ćĖ"
      ],
      [
        "ĕĖĖĕĖĖ",
        "ĕĖĖ"
      ],
      [
        "ė",
        "ėĖĖĖ"
      ],
      [
        "ě",
        "ē"
      ],
      [
        "Ě",
        "Đ"
      ],
      [
        "ĖĖĖĖ",
        "ĖĖĖĖĖ"
      ],
      [
        "ē",
        "Ĕė"
      ],
      [
        "Ĕ",
        "Ęė"
      ],
      [
        "ę",
        "Ď"
      ],
      [
        "đ",
        "Ē"
      ],
      [
        "ęĖĖ",
        "ęĖĖ"
      ],
      [
        "ĕ",
        "ğ"
      ],
      [
        "ĘĕĖ",
        "ėĕĖ"
      ],
      [
        "ē",
        "Ď"
      ],
      [
        "Ē",
        "Đ"
      ],
      [
        "Ĕ",
        "ćĖ"
      ],
      [
        "ĕėĖĖ",
        "ĖĖĖĖĖ"
      ],
      [
        "ė",
        "ěĖĖ"
      ],
      [
        "ĖĖĖĖ",
        "ĘĖĖ"
      ],
      [
        "ĕ",
        "ĕĖĖĕĖĖ"
      ],
      [
        "Ę",
        "Ğ"
      ],
      [
        "ě",
        "Ē"
      ],
      [
        "ėė",
        "ĕė"
      ],
      [
        "đ",
        "Ć"
      ],
      [
        "ě",
        "ę"
      ],
      [
        "ĖĖĖĖĖĖ",
        "ĕĖ"
      ],
      [
        "ē",
        "ĆĖ"
      ],
      [
        "ĕĖĖ",
        "ėĖĖĖĖĖ"
      ],
      [
        "Ė",
        "ĚĖĖ"
      ],
      [
        "ēĖ",
        "ĕ"
      ],
      [
        "ę",
        "ĆĖ"
      ],
      [
        "ėĖĖ",
        "ėĖĖĖĖĖ"
      ],
      [
        "ėĕĖ",
        "ēĖĖ"
      ],
      [
        "Ę",
        "ĝĖ"
      ],
      [
        "Ĕ",
        "ĝĖ"
      ],
      [
        "ėĕĖ",
        "ęĖĖ"
      ],
      [
        "ĕĕĖ",
        "ēĖĖ"
      ],
      [
        "+",
        "Ė"
      ],
      [
        "ėĕĖ",
        "ĘĕĖ"
      ],
      [
        "Đ",
        "ĔĖ"
      ],
      [
        "ĒĖ",
        "ė"
      ],
      [
        "\"",
        "Ė"
      ],
      [
        "Ē",
        "ą"
      ],
      [
        "Ě",
        "Ęĕ"
      ],
      [
        "ėĖĖ",
        "ė"
      ],
      [
        "ĕė",
        "ĕĕ"
      ],
      [
        "ě",
        "Ć"
      ],
      [
        "ėĖĖėĖĖ",
        "ĕĖĖ"
      ],
      [
        "ĘĕĖ",
        "ĕėĖ"
      ],
      [
        "Ĝ",
        "ĘĖ"
      ],
      [
        "ęĕĖ",
        "ĕĖĖ"
      ],
      [
        "ě",
        "Ě"
      ],
      [
        "Ę",
        "ĐĖ"
      ],
      [
        "ēĖĖ",
        "ēĖĖ"
      ],
      [
        "Ě",
        "ĚĖ"
      ],
      [
        "ĕĕ",
        "ėė"
      ],
      [
        "ęĕĖ",
        "ėĖĖ"
      ],
      [
        "ē",
        "ĜĖ"
      ],
      [
        "ėėĖ",
        "ė"
      ],
      [
        "ėĕĖ",
        "ĔėĖ"
      ],
      [
        "ĕĖĖĕĖĖ",
        "ėĖĖ"
      ],
      [
        "ē",
        "Ęė"
      ],
      [
        "ĕ",
        "ĘĕĖ"
      ],
      [
        "Ē",
        "Ĉ"
      ],
      [
        "Ĕ",
        "Ĕĕ"
      ],
      [
        "ě",
        "đ"
      ],
      [
        "Ě",
        "ď"
      ],
      [
        "ĔĖĖ",
        "ĔėĖ"
      ],
      [
        "đ",
        "ć"
      ],
      [
        "ĕ",
        "ēėĖ"
      ],
      [
        "ē",
        "đĖ"
      ],
      [
        "ĕĕĖ",
        "ęĖĖ"
      ],
      [
        "ĘĖĖ",
        "ĘėĖ"
      ],
      [
        "ėĖĖĕĖĖ",
        "ėĖĖ"
      ],
      [
        "Ě",
        "Ĕĕ"
      ],
      [
        "ĕĖĖ",
        "ĕĖĖĖĖĖ"
      ],
      [
        "ĔĖĖ",
        "ĔĕĖ"
      ],
      [
        "ĕĕĖ",
        "ĔĕĖ"
      ],
      [
        "ě",
        "ć"
      ],
      [
        "ĕėĖ",
        "ęĖĖ"
      ],
      [
        "ĕėĖ",
        "ēĖĖ"
      ],
      [
        "Ě",
        "ą"
      ],
      [
        "ėĕ",
        "ėė"
      ],
      [
        "Ę",
        "Ĕė"
      ],
      [
        "ĕ",
        "ĎĖ"
      ],
      [
        "Ě",
        "Ĉ"
      ],
      [
        "ĔĖĖ",
        "ĘĕĖ"
      ],
      [
        "đ",
        "ę"
      ],
      [
        "ėĖ",
        "ĕĖĖ"
      ],
      [
        "ĕ",
        "ĘėĖ"
      ],
      [
        "Ē",
        "ď"
      ],
      [
        "Ė",
        "ėĖĖ"
      ],
      [
        "ĘĖĖ",
        "ĔĕĖ"
      ],
      [
        "ėėĖ",
        "ęĖĖ"
      ],
      [
        "ėĖĖĖĖĖĖ",
        "ĖĖĖĖĖ"
      ],
      [
        "ĕė",
        "ĕė"
      ],
      [
        "ĕėĖ",
        "ĘĕĖ"
      ],
      [
        "Ė",
        "ĕĖĖ"
      ],
      [
        "đ",
        "ęĖ"
      ],
      [
        "ē",
        "Ĝ"
      ],
      [
        "ėĖĖ",
        "ĕĖĖĖĖĖ"
      ],
      [
        "ėėĖ",
        "ēĖĖ"
      ],
      [
        "ēĖĖ",
        "ĕĖ"
      ],
      [
        "ĘĖĖ",
        "ĔėĖ"
      ],
      [
        "ĕėĖ",
        "ĔėĖ"
      ],
      [
        "ėėĖĖ",
        "ĖĖĖĖĖ"
      ],
      [
        "ě",
        "ĕė"
      ],
      [
        "ė",
        "ĔĕĖ"
      ],
      [
        "ě",
        "ėė"
      ],
      [
        "Ē",
        "Ĕė"
      ],
      [
        "đ",
        "đ"
      ],
      [
        "ĕĖĖĖĖĖĖ",
        "ĖĖĖĖĖ"
      ],
      [
        "ę",
        "ĜĖ"
      ],
      [
        "Ėę",
        "ĖĖĖĖ"
      ],
      [
        "Ė",
        "ĕĕ"
      ],
      [
        "Ĕ",
        "Ğ"
      ],
      [
        "Ĕ",
        "ďĖ"
      ],
      [
        "Ę",
        "Ęė"
      ],
      [
        "ėĖĖ",
        "ĚĖĖ"
      ],
      [
        "Ě",
        "Ď"
      ],
      [
        "ėėĖ",
        "ĔĕĖ"
      ],
      [
        "ėė",
        "ĕĕ"
      ],
      [
        "ĖĖĖĖĖĖĖĖ",
        "ĖĖĖ"
      ],
      [
        "ĕĕĖ",
        "ĘĕĖ"
      ],
      [
        "ė",
        "ęĕĖ"
      ],
      [
        "ĒĖĖ",
        "ĕĖĖ"
      ],
      [
        "ėĕĖ",
        "ĔĕĖ"
      ],
      [
        "ĕ",
        "ĞĖ"
      ],
      [
        "ėĖ",
        "ėĖĖ"
      ],
      [
        "ĕĖĖ",
        "ėĖĖėĖĖ"
      ],
      [
        "ėėĖ",
        "ĘĕĖ"
      ],
      [
        "ėĕĖ",
        "ė"
      ],
      [
        "ęĖĖ",
        "ēĖĖ"
      ],
      [
        "ĕĕĖ",
        "ĔėĖ"
      ],
      [
        "Ĝ",
        "ĕĕ"
      ],
      [
        "Ė",
        "ĎĖ"
      ],
      [
        "ėĖĖ",
        "ĔĖ"
      ],
      [
        "Ē",
        "Ď"
      ],
      [
        "ĖėĖ",
        "ėĖĖ"
      ],
      [
        "đ",
        "ĕĕ"
      ],
      [
        "ĚĖĖ",
        "ĕĖĖ"
      ],
      [
        "Ē",
        "Ęė"
      ],
      [
        "ĕĖĖ",
        "ĔĖ"
      ],
      [
        "Ě",
        "Ĕ"
      ],
      [
        "ė",
        "ĞĖ"
      ],
      [
        "ĕĕ",
        "ĕė"
      ],
      [
        "ĕĕĖ",
        "ĘėĖ"
      ],
      [
        "Ė",
        "ĞĖ"
      ],
      [
        "Ē",
        "ě"
      ],
      [
        "ė",
        "ĒĖĖ"
      ],
      [
        "Ğ",
        "ĕĖ"
      ],
      [
        "ė",
        "ĎĖ"
      ],
      [
        "Ę",
        "ğ"
      ],
      [
        "Ĕ",
        "Ęĕ"
      ],
      [
        "ĚĖĖ",
        "ėĖĖ"
      ],
      [
        "ēĖĖ",
        "ęĖĖ"
      ],
      [
        "ėĖĖ",
        "ĘĖ"
      ],
      [
        "Ĝ",
        "ē"
      ],
      [
        "ĖėĖ",
        "ĕĖĖ"
      ],
      [
        "ėėĖ",
        "ĘėĖ"
      ],
      [
        "ėĕĖ",
        "ĘėĖ"
      ],
      [
        "ēėĖ",
        "ĕĖĖ"
      ],
      [
        "ĔĖĖ",
        "ĘėĖ"
      ],
      [
        "ėę",
        "ĖĖĖĖ"
      ],
      [
        "ę",
        "ĕĖĖĕĖ"
      ],
      [
        "ĕ",
        "đĖĖ"
      ],
      [
        "ě",
        "Đ"
      ],
      [
        "ěĖĖ",
        "ĕĖ"
      ],
      [
        "ęėĖ",
        "ėĖĖ"
      ],
      [
        "ė",
        "ĔėĖ"
      ],
      [
        "ę",
        "ėĘ"
      ],
      [
        "Ě",
        "Ĝ"
      ],
      [
        "ėĖĖĖ",
        "ĕĖĖĖĖ"
      ],
      [
        "ėėĖ",
        "ĔėĖ"
      ],
      [
        "Ē",
        "ĒĖ"
      ],
      [
        "*",
        "Ė"
      ],
      [
        "ėĖĖ",
        "ĕĖĖĕĖĖ"
      ],
      [
        "ē",
        "ĕĔ"
      ],
      [
        "ēĕĖ",
        "ĕĖĖ"
      ],
      [
        "ĕėĖ",
        "ĔĕĖ"
      ],
      [
        "Đ",
        "ėė"
      ],
      [
        "Ę",
        "ĘĖĖ"
      ],
      [
        "Ĝ",
        "ėĕ"
      ],
      [
        "ĘĕĖ",
        "ęĖĖ"
      ],
      [
        "ĘĕĖ",
        "ĕĕĖ"
      ],
      [
        "Ĕ",
        "ĔĖĖ"
      ],
      [
        "ę",
        "ĝ"
      ],
      [
        "Đ",
        "ē"
      ],
      [
        "Đ",
        "ĕė"
      ],
      [
        "ę",
        "đĖ"
      ],
      [
        "ĕę",
        "ĖĖĖĖ"
      ],
      [
        "đ",
        "Ě"
      ],
      [
        "Ĝ",
        "Ē"
      ],
      [
        "Ď",
        "ėĖ"
      ],
      [
        "Ď",
        "ĕĖ"
      ],
      [
        "ėĖĖ",
        "ęĕĖ"
      ],
      [
        "ĘĕĖ",
        "ēĖĖ"
      ],
      [
        "Ą",
        "Ė"
      ],
      [
        "Ė",
        "ėĖĖĕĖ"
      ],
      [
        "ĕėĖ",
        "ĘėĖ"
      ],
      [
        "ĕĕ",
        "ĔĖ"
      ],
      [
        "ğ",
        "ĖĖ"
      ],
      [
        "Ğ",
        "ėĖ"
      ],
      [
        "ĕĖĖĖ",
        "ĕĖĖĖĖ"
      ],
      [
        "ĘĘ",
        "ĖĖĖĖ"
      ],
      [
        "ĖĕĖ",
        "ĕĖĖ"
      ],
      [
        "Ē",
        "ěĖ"
      ],
      [
        "ě",
        "ēĖ"
      ],
      [
        "ĚĖ",
        "ĕ"
      ],
      [
        "Ė",
        "Ĕ"
      ],
      [
        "ĔėĖ",
        "ėĕĖ"
      ],
      [
        "ęėĖ",
        "ĕĖĖ"
      ],
      [
        "Ė",
        "Ĝ"
      ],
      [
        "ĕĕĖ",
        "ĕĖ"
      ],
      [
        "ě",
        "ě"
      ],
      [
        "đ",
        "ēĖ"
      ],
      [
        "ĔĘ",
        "ĖĖĖĖ"
      ],
      [
        "ę",
        "ĕĘ"
      ],
      [
        "ĕĖĖ",
        "ĘĖ"
      ],
      [
        "đ",
        "ėĕ"
      ],
      [
        "ě",
        "ęĖ"
      ],
      [
        "ĔėĖ",
        "ĕėĖ"
      ],
      [
        "Ě",
        "Ę"
      ],
      [
        "ĕėĖ",
        "ĕĖ"
      ],
      [
        "đ",
        "Đ"
      ],
      [
        "ę",
        "Ĕė"
      ],
      [
        "Ė",
        ",Ė"
      ],
      [
        "ėĖĖ",
        "ĒĖĖ"
      ],
      [
        "ĕĕ",
        "ėĕ"
      ],
      [
        "ĘėĖ",
        "ĕĕĖ"
      ],
      [
        "ĝ",
        "ĔĖ"
      ],
      [
        "ĕėĖ",
        "ėĖ"
      ],
      [
        "ėĖĖĖ",
        "ėĖĖĖĖ"
      ],
      [
        "ėėĖ",
        "ėĖ"
      ],
      [
        "ě",
        "Ęĕ"
      ],
      [
        "Ę",
        "ďĖ"
      ],
      [
        "ėĘ",
        "ĕė"
      ],
      [
        "ęĕĖ",
        "ĘĖĖ"
      ],
      [
        "ęĕĖ",
        "ĔĖĖ"
      ],
      [
        "ĚĖĖ",
        "ĘĖĖ"
      ],
      [
        "ĖĕĖ",
        "ėĖĖ"
      ],
      [
        "ĕĖĖ",
        "ėĖĖĕĖĖ"
      ],
      [
        "ē",
        "ėĔ"
      ],
      [
        "Ė",
        "Ę"
      ],
      [
        "ė",
        "ęėĖ"
      ],
      [
        "ĕĔ",
        "ĖĖĖĖĖ"
      ],
      [
        "Đ",
        "Ē"
      ],
      [
        "ėĕĖ",
        "ĕĖ"
      ],
      [
        "ĘĔ",
        "ĖĖĖĖ"
      ],
      [
        "ę",
        "ĕĔ"
      ],
      [
        "ĘĕĖ",
        "ĘĕĖ"
      ],
      [
        "ĕĕĖ",
        "ėĖ"
      ],
      [
        "Ě",
        "ĒĖ"
      ],
      [
        "ēėĖ",
        "ėĖĖ"
      ],
      [
        "ē",
        "Ĕĕ"
      ],
      [
        "#",
        "Ė"
      ],
      [
        "ĒĖĖ",
        "ĔĖĖ"
      ],
      [
        "Ę",
        "ĔĖĖ"
      ],
      [
        "ĔĕĖ",
        "ĕĕĖ"
      ],
      [
        "Ě",
        "ĕĖĖĖĖ"
      ],
      [
        "Ę",
        "ąĖ"
      ],
      [
        "ĔĕĖ",
        "ėėĖ"
      ],
      [
        "ēĕĖ",
        "ėĖĖ"
      ],
      [
        "ĒĖĖ",
        "ėĖĖ"
      ],
      [
        "ę",
        "Ęė"
      ],
      [
        "Ĕ",
        "ĘĖĖ"
      ],
      [
        "Ě",
        "ė"
      ],
      [
        "ę",
        "ĕĖĖėĖ"
      ],
      [
        "ėĕĖ",
        "ėĖ"
      ],
      [
        "ĔėĖ",
        "ēĖĖ"
      ],
      [
        ")",
        "Ė"
      ],
      [
        "ē",
        "ėĘ"
      ],
      [
        "ĘĕĖ",
        "ėėĖ"
      ],
      [
        "ėĘĖĖ",
        "ĕĖ"
      ],
      [
        "Ē",
        "Ĕ"
      ],
      [
        "đ",
        "Ĉ"
      ],
      [
        "ęĖĖ",
        "ėĕĖ"
      ],
      [
        "Ĕ",
        "ąĖ"
      ],
      [
        "ĘėĖ",
        "ėėĖ"
      ],
      [
        "ě",
        "Ĉ"
      ],
      [
        "ď",
        "ĘĖ"
      ],
      [
        "ęĖĖ",
        "ĕĕĖ"
      ],
      [
        "Ėē",
        "ĖĖĖĖ"
      ],
      [
        "ĔĕĖ",
        "ēĖĖ"
      ],
      [
        "ĚĖ",
        "ė"
      ],
      [
        "ĚĖĖ",
        "ĔĖĖ"
      ],
      [
        "ĕĖĖĖ",
        "ėĖĖĖĖ"
      ],
      [
        "Ě",
        "ěĖ"
      ],
      [
        "ĕĔ",
        "ĕĕ"
      ],
      [
        "ĕĘĖĖ",
        "ĕĖ"
      ],
      [
        "ē",
        "ĐĖ"
      ],
      [
        "ėĘ",
        "ėė"
      ],
      [
        "Ę",
        "ĚĖĖ"
      ],
      [
        "ĕĖĖĖĖĖ",
        "ĘĖĖ"
      ],
      [
        "ėėĖ",
        "ĕĖ"
      ],
      [
        "ě",
        "ď"
      ],
      [
        "ē",
        "ĕĘ"
      ],
      [
        "ēėĖ",
        "ĔĖĖ"
      ],
      [
        "ę",
        "ėĔ"
      ],
      [
        "ĘĕĖ",
        "ĔėĖ"
      ],
      [
        "đ",
        "ď"
      ],
      [
        "ėĖĖĖĖĖ",
        "ĔĖĖ"
      ],
      [
        "ėėĖ",
        "ĕ"
      ],
      [
        "đ",
        "ą"
      ],
      [
        "ėĕĖ",
        "ĕ"
      ],
      [
        "ėĖĖ",
        "ĕ"
      ],
      [
        "ĕĖĖĖĖĖ",
        "ĔĖĖ"
      ],
      [
        "Ė",
        "ĘĖĖ"
      ],
      [
        "Ĝ",
        "ę"
      ],
      [
        "ĕ",
        ",Ė"
      ],
      [
        "ē",
        "ėĖĖĕĖ"
      ],
      [
        "ĘėĖ",
        "ęĖĖ"
      ],
      [
        "ėė",
        "ėĕ"
      ],
      [
        "ėĖĖĖĖĖ",
        "ĘĖĖ"
      ],
      [
        "ĔĕĖ",
        "ėĕĖ"
      ]
    ]
  }
}